#ifndef MODEL_TFLITE_H
#define MODEL_TFLITE_H

const unsigned char model_tflite[] = {

    0x20, 0x00, 0x00, 0x00, 0x54, 0x46, 0x4c, 0x33, 0x00, 0x00, 0x00, 0x00, 
    0x14, 0x00, 0x20, 0x00, 0x1c, 0x00, 0x18, 0x00, 0x14, 0x00, 0x10, 0x00, 
    0x0c, 0x00, 0x00, 0x00, 0x08, 0x00, 0x04, 0x00, 0x14, 0x00, 0x00, 0x00, 
    0x1c, 0x00, 0x00, 0x00, 0x1c, 0x00, 0x00, 0x00, 0x9c, 0x00, 0x00, 0x00, 
    0x30, 0x15, 0x00, 0x00, 0x40, 0x15, 0x00, 0x00, 0x18, 0x1d, 0x00, 0x00, 
    0x03, 0x00, 0x00, 0x00, 0x00, 0x00, 0x00, 0x00, 0x03, 0x00, 0x00, 0x00, 
    0x5c, 0x00, 0x00, 0x00, 0x2c, 0x00, 0x00, 0x00, 0x04, 0x00, 0x00, 0x00, 
    0xb8, 0xff, 0xff, 0xff, 0x10, 0x00, 0x00, 0x00, 0x04, 0x00, 0x00, 0x00, 
    0x13, 0x00, 0x00, 0x00, 0x43, 0x4f, 0x4e, 0x56, 0x45, 0x52, 0x53, 0x49, 
    0x4f, 0x4e, 0x5f, 0x4d, 0x45, 0x54, 0x41, 0x44, 0x41, 0x54, 0x41, 0x00, 
    0xdc, 0xff, 0xff, 0xff, 0x0f, 0x00, 0x00, 0x00, 0x04, 0x00, 0x00, 0x00, 
    0x13, 0x00, 0x00, 0x00, 0x6d, 0x69, 0x6e, 0x5f, 0x72, 0x75, 0x6e, 0x74, 
    0x69, 0x6d, 0x65, 0x5f, 0x76, 0x65, 0x72, 0x73, 0x69, 0x6f, 0x6e, 0x00, 
    0x08, 0x00, 0x0c, 0x00, 0x08, 0x00, 0x04, 0x00, 0x08, 0x00, 0x00, 0x00, 
    0x0e, 0x00, 0x00, 0x00, 0x04, 0x00, 0x00, 0x00, 0x13, 0x00, 0x00, 0x00, 
    0x6d, 0x69, 0x6e, 0x5f, 0x72, 0x75, 0x6e, 0x74, 0x69, 0x6d, 0x65, 0x5f, 
    0x76, 0x65, 0x72, 0x73, 0x69, 0x6f, 0x6e, 0x00, 0x11, 0x00, 0x00, 0x00, 
    0x90, 0x14, 0x00, 0x00, 0x88, 0x14, 0x00, 0x00, 0x74, 0x14, 0x00, 0x00, 
    0x1c, 0x14, 0x00, 0x00, 0x0c, 0x13, 0x00, 0x00, 0xfc, 0x02, 0x00, 0x00, 
    0xec, 0x01, 0x00, 0x00, 0xdc, 0x00, 0x00, 0x00, 0xd4, 0x00, 0x00, 0x00, 
    0xcc, 0x00, 0x00, 0x00, 0xc4, 0x00, 0x00, 0x00, 0xbc, 0x00, 0x00, 0x00, 
    0xb4, 0x00, 0x00, 0x00, 0xac, 0x00, 0x00, 0x00, 0x8c, 0x00, 0x00, 0x00, 
    0x6c, 0x00, 0x00, 0x00, 0x04, 0x00, 0x00, 0x00, 0xce, 0xeb, 0xff, 0xff, 
    0x04, 0x00, 0x00, 0x00, 0x58, 0x00, 0x00, 0x00, 0x0c, 0x00, 0x00, 0x00, 
    0x08, 0x00, 0x0e, 0x00, 0x08, 0x00, 0x04, 0x00, 0x08, 0x00, 0x00, 0x00, 
    0x10, 0x00, 0x00, 0x00, 0x28, 0x00, 0x00, 0x00, 0x00, 0x00, 0x06, 0x00, 
    0x08, 0x00, 0x04, 0x00, 0x06, 0x00, 0x00, 0x00, 0x04, 0x00, 0x00, 0x00, 
    0x01, 0x00, 0x00, 0x00, 0xeb, 0x03, 0x00, 0x00, 0x00, 0x00, 0x0a, 0x00, 
    0x10, 0x00, 0x0c, 0x00, 0x08, 0x00, 0x04, 0x00, 0x0a, 0x00, 0x00, 0x00, 
    0x03, 0x00, 0x00, 0x00, 0x02, 0x00, 0x00, 0x00, 0x04, 0x00, 0x00, 0x00, 
    0x06, 0x00, 0x00, 0x00, 0x32, 0x2e, 0x31, 0x36, 0x2e, 0x31, 0x00, 0x00, 
    0x32, 0xec, 0xff, 0xff, 0x04, 0x00, 0x00, 0x00, 0x10, 0x00, 0x00, 0x00, 
    0x00, 0x00, 0x00, 0x00, 0x00, 0x00, 0x00, 0x00, 0x00, 0x00, 0x00, 0x00, 
    0x00, 0x00, 0x00, 0x00, 0x4e, 0xec, 0xff, 0xff, 0x04, 0x00, 0x00, 0x00, 
    0x10, 0x00, 0x00, 0x00, 0x31, 0x2e, 0x31, 0x34, 0x2e, 0x30, 0x00, 0x00, 
    0x00, 0x00, 0x00, 0x00, 0x00, 0x00, 0x00, 0x00, 0x78, 0xe4, 0xff, 0xff, 
    0x7c, 0xe4, 0xff, 0xff, 0x80, 0xe4, 0xff, 0xff, 0x84, 0xe4, 0xff, 0xff, 
    0x88, 0xe4, 0xff, 0xff, 0x8c, 0xe4, 0xff, 0xff, 0x82, 0xec, 0xff, 0xff, 
    0x04, 0x00, 0x00, 0x00, 0x00, 0x01, 0x00, 0x00, 0xff, 0x23, 0x57, 0x7b, 
    0x02, 0x2c, 0xde, 0xd0, 0xdc, 0x62, 0x09, 0x73, 0xc8, 0x64, 0xda, 0xf8, 
    0xb8, 0x06, 0xf1, 0xea, 0x15, 0x19, 0x6a, 0xb5, 0xbe, 0x2a, 0xdb, 0xa9, 
    0xd1, 0x5f, 0x2f, 0x95, 0xc5, 0xe4, 0x14, 0xb0, 0xb7, 0x4f, 0xf8, 0xd7, 
    0x58, 0x21, 0xdb, 0xc2, 0xc7, 0xbb, 0x3c, 0x8e, 0x89, 0x0f, 0xa2, 0xda, 
    0x37, 0xcc, 0x3c, 0xcb, 0xe8, 0xf3, 0x9a, 0x9b, 0x85, 0xbe, 0x14, 0xb3, 
    0xaf, 0x77, 0x96, 0xdc, 0xf9, 0xe6, 0xbc, 0x94, 0xc0, 0x9b, 0xc9, 0xaf, 
    0xdf, 0x2d, 0xd3, 0x3f, 0xbc, 0xa6, 0x0e, 0x2f, 0x10, 0x58, 0x88, 0x02, 
    0x0e, 0xb2, 0x18, 0xa1, 0xb1, 0x39, 0xcc, 0x4d, 0x51, 0xab, 0xda, 0xd7, 
    0x1f, 0xbb, 0x6c, 0x4a, 0x4e, 0x28, 0xe5, 0x75, 0xfd, 0xab, 0x28, 0x20, 
    0x60, 0xf5, 0x99, 0x4f, 0xd8, 0x5f, 0xca, 0xc9, 0x26, 0xa9, 0xf5, 0xe0, 
    0x4c, 0x63, 0xd5, 0x9a, 0xa1, 0x89, 0x2c, 0xd9, 0x35, 0x99, 0x5c, 0xb8, 
    0xe2, 0x21, 0xec, 0xd0, 0xa0, 0xd4, 0x40, 0xa0, 0xe8, 0x00, 0x4e, 0xcd, 
    0x74, 0xae, 0x6a, 0x74, 0x92, 0x3c, 0xb0, 0x37, 0x17, 0xa3, 0x68, 0x0c, 
    0x69, 0x58, 0x3e, 0x6a, 0x45, 0x4e, 0x24, 0xcf, 0x1d, 0xfd, 0x30, 0x05, 
    0x2d, 0x96, 0xcb, 0x11, 0x1d, 0x68, 0x9d, 0x79, 0xf5, 0x52, 0xbe, 0xc0, 
    0x46, 0x36, 0xc9, 0x34, 0xe1, 0xa5, 0x3a, 0x2e, 0x19, 0x42, 0x74, 0xd9, 
    0x99, 0xf9, 0x77, 0xaf, 0x3a, 0xca, 0xcb, 0x58, 0xf5, 0x46, 0x3c, 0xdc, 
    0x29, 0x32, 0x51, 0x0a, 0x2c, 0x6e, 0x26, 0xc5, 0x97, 0xf0, 0x14, 0x00, 
    0xb8, 0xc4, 0x8b, 0x93, 0x71, 0x19, 0x77, 0xa7, 0x93, 0xfb, 0xd6, 0x95, 
    0x24, 0xbf, 0xa0, 0x9f, 0xfc, 0x11, 0x82, 0x04, 0x49, 0xf4, 0x0c, 0x13, 
    0xd6, 0xe9, 0xc0, 0x81, 0x4a, 0x0a, 0x93, 0x74, 0x42, 0x12, 0x7b, 0x06, 
    0x8e, 0xed, 0xff, 0xff, 0x04, 0x00, 0x00, 0x00, 0x00, 0x01, 0x00, 0x00, 
    0xe4, 0xff, 0xff, 0xff, 0xf2, 0x01, 0x00, 0x00, 0x16, 0x01, 0x00, 0x00, 
    0x67, 0xff, 0xff, 0xff, 0xe6, 0x01, 0x00, 0x00, 0xdb, 0xff, 0xff, 0xff, 
    0xf5, 0x00, 0x00, 0x00, 0xbc, 0xff, 0xff, 0xff, 0x4c, 0x02, 0x00, 0x00, 
    0xd4, 0x00, 0x00, 0x00, 0x32, 0xff, 0xff, 0xff, 0x78, 0xff, 0xff, 0xff, 
    0xa0, 0x01, 0x00, 0x00, 0x08, 0xff, 0xff, 0xff, 0x35, 0x01, 0x00, 0x00, 
    0xf8, 0xff, 0xff, 0xff, 0xc3, 0x00, 0x00, 0x00, 0x80, 0xff, 0xff, 0xff, 
    0x06, 0xff, 0xff, 0xff, 0x9a, 0x01, 0x00, 0x00, 0xb1, 0x00, 0x00, 0x00, 
    0x3d, 0x00, 0x00, 0x00, 0xfd, 0xfe, 0xff, 0xff, 0x7f, 0x00, 0x00, 0x00, 
    0x4b, 0x00, 0x00, 0x00, 0xf4, 0x00, 0x00, 0x00, 0xde, 0xff, 0xff, 0xff, 
    0xcb, 0x01, 0x00, 0x00, 0xbf, 0xff, 0xff, 0xff, 0x3e, 0xfe, 0xff, 0xff, 
    0x3d, 0x00, 0x00, 0x00, 0xb1, 0xfe, 0xff, 0xff, 0x69, 0x00, 0x00, 0x00, 
    0x8e, 0x00, 0x00, 0x00, 0x65, 0xff, 0xff, 0xff, 0x89, 0x01, 0x00, 0x00, 
    0xd2, 0xff, 0xff, 0xff, 0xc6, 0x00, 0x00, 0x00, 0x2c, 0xfe, 0xff, 0xff, 
    0x76, 0x00, 0x00, 0x00, 0x04, 0x00, 0x00, 0x00, 0x45, 0x01, 0x00, 0x00, 
    0x67, 0x00, 0x00, 0x00, 0x90, 0x00, 0x00, 0x00, 0x4d, 0x00, 0x00, 0x00, 
    0x82, 0xfe, 0xff, 0xff, 0xf6, 0x00, 0x00, 0x00, 0xd6, 0xfe, 0xff, 0xff, 
    0xea, 0x01, 0x00, 0x00, 0x9b, 0x01, 0x00, 0x00, 0x5b, 0xff, 0xff, 0xff, 
    0x22, 0x00, 0x00, 0x00, 0xb9, 0xff, 0xff, 0xff, 0xab, 0xff, 0xff, 0xff, 
    0xad, 0xfe, 0xff, 0xff, 0xa3, 0x01, 0x00, 0x00, 0x06, 0x02, 0x00, 0x00, 
    0xcf, 0x00, 0x00, 0x00, 0xd9, 0xff, 0xff, 0xff, 0xff, 0x02, 0x00, 0x00, 
    0xf5, 0xfe, 0xff, 0xff, 0x5e, 0xff, 0xff, 0xff, 0x25, 0xff, 0xff, 0xff, 
    0xa6, 0x00, 0x00, 0x00, 0x9a, 0xee, 0xff, 0xff, 0x04, 0x00, 0x00, 0x00, 
    0x00, 0x10, 0x00, 0x00, 0xdc, 0x50, 0xb6, 0x15, 0x4c, 0x50, 0xf6, 0xe4, 
    0xa0, 0x94, 0xb9, 0x0d, 0xb1, 0x6b, 0xa8, 0x01, 0x97, 0xb0, 0xc8, 0x07, 
    0x1b, 0x9f, 0x5f, 0x5f, 0x7f, 0xa7, 0x6a, 0xa2, 0x5d, 0x0b, 0x43, 0x05, 
    0x2d, 0x55, 0xcd, 0x62, 0xf5, 0xaf, 0x1a, 0x64, 0x42, 0x44, 0xc5, 0x1b, 
    0xd7, 0x1d, 0xdf, 0x35, 0xbd, 0x32, 0x40, 0xe0, 0xa5, 0x15, 0xc9, 0x96, 
    0x47, 0x44, 0x24, 0xc0, 0x4f, 0x1b, 0xea, 0xae, 0x41, 0x1f, 0x0c, 0xdd, 
    0x20, 0xeb, 0x6f, 0xf2, 0xac, 0x6f, 0x53, 0xfb, 0xce, 0x1a, 0x5c, 0xee, 
    0x9c, 0xb2, 0x59, 0x3f, 0xca, 0x3e, 0x41, 0x71, 0x1a, 0x3c, 0xb7, 0xb3, 
    0xac, 0xdd, 0xe8, 0xc6, 0x2e, 0x32, 0x0b, 0x61, 0xb0, 0x4b, 0x28, 0x9d, 
    0xc3, 0x13, 0xd3, 0x3d, 0xa6, 0xe8, 0xf1, 0x2f, 0x96, 0xd0, 0x19, 0xc9, 
    0x30, 0xdd, 0xe5, 0xc7, 0xa4, 0x21, 0xe5, 0x9a, 0x45, 0xbd, 0xa6, 0xdb, 
    0xa1, 0x8d, 0x20, 0xbe, 0x6c, 0x66, 0xce, 0x69, 0x3e, 0xb9, 0x63, 0xfb, 
    0x04, 0x54, 0xc4, 0xa4, 0x5c, 0x59, 0x4b, 0x15, 0xfe, 0xfe, 0xfa, 0x50, 
    0xae, 0xcd, 0x01, 0xbd, 0x61, 0x2e, 0x50, 0x1b, 0xcf, 0x27, 0x67, 0xe9, 
    0x95, 0x9e, 0x08, 0x3c, 0x69, 0xe4, 0xd1, 0x3a, 0x9e, 0x90, 0x0e, 0xab, 
    0xf6, 0x27, 0x94, 0x0a, 0xe1, 0xa1, 0x47, 0xac, 0x01, 0x6a, 0x91, 0xf6, 
    0xfb, 0xbf, 0x00, 0x4e, 0x56, 0xc3, 0xe2, 0x93, 0x01, 0x5a, 0xf0, 0x5e, 
    0xc7, 0x24, 0xc9, 0x92, 0xac, 0xec, 0xc1, 0xe7, 0xc0, 0x42, 0xfc, 0xec, 
    0xea, 0x3e, 0xd9, 0x16, 0x20, 0xfe, 0x21, 0xe9, 0x4e, 0xfd, 0xce, 0xc5, 
    0x21, 0xf9, 0xd4, 0x1b, 0xf8, 0xa2, 0xae, 0x03, 0xd0, 0xec, 0x98, 0x93, 
    0xd1, 0x39, 0x14, 0x38, 0x0d, 0xf1, 0xee, 0xc1, 0xa7, 0xf5, 0x2d, 0x4a, 
    0x08, 0x3c, 0xba, 0xc8, 0x55, 0x64, 0xed, 0x62, 0x21, 0xb7, 0x34, 0xb6, 
    0x01, 0xa8, 0xd1, 0xd2, 0xe4, 0x66, 0x46, 0x98, 0x63, 0x34, 0x3c, 0xc6, 
    0x2c, 0x3f, 0xab, 0x59, 0x62, 0x43, 0x95, 0xce, 0xaf, 0xff, 0x34, 0x08, 
    0xd7, 0xd0, 0x8b, 0x90, 0xe6, 0xc5, 0x39, 0x9c, 0x91, 0xdf, 0xb2, 0x67, 
    0xb5, 0xb2, 0x0f, 0x4b, 0xfe, 0xbd, 0xf5, 0xd2, 0x37, 0xdb, 0x41, 0x3d, 
    0xc3, 0x13, 0xa2, 0x5a, 0xf4, 0x75, 0x1d, 0xfa, 0x29, 0x10, 0x47, 0x49, 
    0x57, 0xa0, 0x10, 0x72, 0x62, 0x3a, 0xb2, 0x55, 0x19, 0x4f, 0xe2, 0xfa, 
    0x49, 0x36, 0x40, 0x0f, 0xcf, 0x45, 0x14, 0xa2, 0xc9, 0xb4, 0x02, 0xbe, 
    0x4b, 0x64, 0x14, 0x1b, 0x2a, 0xc9, 0x2e, 0xa8, 0x34, 0xd3, 0xb6, 0xf5, 
    0x04, 0xb1, 0x35, 0xcd, 0x58, 0xdd, 0x38, 0xac, 0x0c, 0xf4, 0x27, 0x0f, 
    0x0b, 0x96, 0xca, 0x51, 0xe5, 0xb4, 0xd5, 0xcf, 0x55, 0x2c, 0xde, 0xcd, 
    0xe2, 0xc7, 0x2a, 0x5d, 0x95, 0xfa, 0xd3, 0x12, 0xba, 0xdc, 0xe6, 0x19, 
    0xad, 0x4c, 0x47, 0x0f, 0xe8, 0xb2, 0x61, 0x6b, 0x26, 0x02, 0x03, 0xa1, 
    0xd7, 0x37, 0x1d, 0x34, 0xe5, 0xff, 0xac, 0xdc, 0x3c, 0xbe, 0xb3, 0x96, 
    0xf2, 0x32, 0x0f, 0x5b, 0xa0, 0x49, 0x8d, 0xb2, 0x61, 0x48, 0x53, 0x54, 
    0x94, 0xbb, 0x06, 0x6e, 0x10, 0x45, 0x6b, 0x96, 0xd0, 0x5f, 0x0d, 0x01, 
    0xf3, 0xf7, 0xf3, 0xb2, 0xf8, 0x13, 0x08, 0xc6, 0xa2, 0xbd, 0x76, 0xbe, 
    0xc0, 0xab, 0x55, 0xa2, 0xad, 0x0a, 0x57, 0x2b, 0x54, 0xbb, 0xbc, 0x53, 
    0x36, 0xad, 0x46, 0x09, 0x24, 0xc7, 0xb2, 0x56, 0xd9, 0x41, 0xe3, 0x4b, 
    0x41, 0xcd, 0xbc, 0x1b, 0xc3, 0x59, 0xc1, 0x26, 0xbd, 0x60, 0x6a, 0x35, 
    0x34, 0x0e, 0xf0, 0x49, 0x99, 0xb8, 0x2f, 0xb6, 0x48, 0xa9, 0xfd, 0x9d, 
    0x43, 0x43, 0x50, 0xdb, 0xae, 0xe9, 0x13, 0xe8, 0x2e, 0xe4, 0x55, 0xa5, 
    0xf6, 0x62, 0x2d, 0x3b, 0xdb, 0x51, 0xdb, 0x14, 0x47, 0x39, 0xde, 0xd1, 
    0xbf, 0x1d, 0x99, 0x99, 0xa8, 0x9d, 0x53, 0x3b, 0xe0, 0xf9, 0x52, 0x2a, 
    0xec, 0x23, 0x1f, 0x0b, 0x45, 0x33, 0x3c, 0x56, 0x9d, 0xbb, 0xa2, 0xd3, 
    0x18, 0xd0, 0xb5, 0x06, 0xc2, 0xba, 0xa6, 0x0c, 0xd5, 0x2e, 0x60, 0x50, 
    0x98, 0x5b, 0x68, 0x92, 0x3b, 0xab, 0xc4, 0xf5, 0x95, 0xb4, 0x0f, 0x10, 
    0x23, 0x91, 0x12, 0x56, 0x18, 0xe5, 0x99, 0xba, 0x55, 0x9f, 0xeb, 0xac, 
    0x2d, 0x40, 0x86, 0xfd, 0xba, 0x12, 0xdf, 0x0e, 0x5a, 0x69, 0x60, 0x39, 
    0xa0, 0x63, 0xd5, 0xe4, 0xd7, 0xe6, 0x44, 0xd7, 0xa6, 0xab, 0xe5, 0xea, 
    0x0e, 0xee, 0xb9, 0x33, 0xd0, 0xbe, 0xd8, 0x5c, 0xd7, 0xa5, 0x06, 0x1f, 
    0xc5, 0x05, 0x3c, 0x53, 0xb3, 0x3d, 0xae, 0xa7, 0x8c, 0xe0, 0xad, 0x4b, 
    0x8a, 0x3b, 0x34, 0xd7, 0xef, 0x64, 0xd3, 0xc6, 0xf4, 0x2b, 0x1b, 0x90, 
    0x47, 0xab, 0x03, 0xd2, 0xa7, 0x59, 0x51, 0x64, 0x44, 0x1b, 0x73, 0x0f, 
    0x1b, 0xb6, 0x27, 0x14, 0x64, 0x96, 0x50, 0xe0, 0x52, 0x0d, 0xba, 0xfb, 
    0xd0, 0xed, 0x14, 0x32, 0x3c, 0x3c, 0x50, 0x5e, 0x2f, 0x89, 0xb5, 0x0a, 
    0xf1, 0xf3, 0x35, 0x8c, 0x50, 0x4c, 0xff, 0xaa, 0xdb, 0xc6, 0xb7, 0x15, 
    0x49, 0x2c, 0x6b, 0x6c, 0x99, 0x2c, 0xfd, 0x38, 0x62, 0xcb, 0xe6, 0x6c, 
    0x63, 0xb8, 0x7c, 0x65, 0xf3, 0x3f, 0x23, 0xb5, 0x03, 0xa3, 0x49, 0x2d, 
    0xb8, 0x38, 0x09, 0x2c, 0xd9, 0x98, 0xf5, 0x93, 0x20, 0xaa, 0x75, 0x1d, 
    0x21, 0x3b, 0xd5, 0xd0, 0xfc, 0xf8, 0x5e, 0xf5, 0x12, 0xdd, 0x09, 0x40, 
    0xb3, 0xd9, 0x49, 0xb5, 0xa1, 0x26, 0xff, 0x7c, 0x1f, 0x9b, 0xf9, 0x15, 
    0x0e, 0xac, 0x59, 0x48, 0x65, 0x0f, 0xcb, 0x1a, 0x4b, 0x2e, 0x42, 0x07, 
    0x34, 0x59, 0xa9, 0xef, 0x06, 0xb8, 0xc9, 0x5a, 0x95, 0xd6, 0xa6, 0xd4, 
    0xc3, 0xb6, 0x28, 0xcb, 0x8a, 0xbd, 0x5f, 0x5c, 0x30, 0xe0, 0xf8, 0xd4, 
    0x3f, 0xba, 0xe9, 0x6e, 0x33, 0x66, 0x48, 0x03, 0x30, 0xa7, 0xed, 0xdb, 
    0xee, 0x6d, 0x29, 0xc8, 0x31, 0xbb, 0x2d, 0x17, 0x6a, 0xf2, 0x14, 0x74, 
    0x40, 0xfc, 0xa5, 0xaa, 0x21, 0x5d, 0xac, 0x59, 0x38, 0xfa, 0x3d, 0x2b, 
    0x6e, 0x0c, 0x32, 0x1b, 0x0e, 0xea, 0xc7, 0x64, 0xe2, 0xc3, 0x22, 0x08, 
    0x5f, 0x3b, 0xf2, 0x65, 0x63, 0x60, 0x62, 0x56, 0x02, 0x64, 0x2f, 0x04, 
    0xec, 0x40, 0xa0, 0xbb, 0xc9, 0x23, 0xaa, 0xaf, 0xda, 0x43, 0x0c, 0x60, 
    0xde, 0x5b, 0xed, 0xfd, 0xc0, 0x75, 0xcc, 0x5e, 0xf7, 0x68, 0xd8, 0x57, 
    0xaa, 0xe2, 0x6e, 0x43, 0xc5, 0x3a, 0x60, 0xb5, 0xf8, 0x59, 0xc6, 0x1e, 
    0xf7, 0x94, 0x39, 0x55, 0x27, 0x22, 0xce, 0x23, 0x40, 0x99, 0x0d, 0xb2, 
    0xe0, 0xe6, 0x56, 0x52, 0x4e, 0x97, 0x75, 0xc4, 0xfd, 0xf3, 0xa1, 0xaa, 
    0x20, 0xb7, 0x67, 0x25, 0xcd, 0x1d, 0x51, 0xb2, 0xa9, 0x63, 0xc2, 0xa8, 
    0x0b, 0xaa, 0x0d, 0xa2, 0x3a, 0xca, 0x08, 0x50, 0x39, 0x23, 0x22, 0xb9, 
    0xde, 0xa8, 0xfa, 0xed, 0x9d, 0x3e, 0x01, 0x64, 0x28, 0xc8, 0xc1, 0x9b, 
    0x3c, 0xbc, 0xa8, 0x34, 0xb1, 0x67, 0x11, 0x59, 0x33, 0x36, 0xf4, 0xd3, 
    0x26, 0xe1, 0xe8, 0xe0, 0xa1, 0x51, 0x43, 0x3f, 0xde, 0x06, 0xb3, 0x95, 
    0xc7, 0xf2, 0x62, 0xe4, 0xec, 0x70, 0x65, 0x9c, 0x57, 0xc5, 0x2f, 0x39, 
    0x42, 0x4a, 0x2b, 0xb8, 0xce, 0xb7, 0x32, 0x3c, 0x34, 0xd6, 0x10, 0x17, 
    0xe0, 0x9c, 0xfb, 0x69, 0xbf, 0xbf, 0xd9, 0x18, 0xe1, 0xd3, 0x8f, 0xe2, 
    0x6c, 0xeb, 0x0a, 0x9c, 0x0d, 0xe9, 0x14, 0xfc, 0xdf, 0xb0, 0xb0, 0x49, 
    0xea, 0x30, 0xae, 0xd3, 0xea, 0x64, 0x39, 0xee, 0xc6, 0x6c, 0x8b, 0x16, 
    0x60, 0xcd, 0xf8, 0xeb, 0xf8, 0x43, 0x7c, 0x28, 0x93, 0xa5, 0x16, 0x0d, 
    0x0d, 0xea, 0xe4, 0xfa, 0x1f, 0xb7, 0x27, 0x12, 0x6b, 0x61, 0xfa, 0x43, 
    0x71, 0x97, 0x28, 0xbe, 0x5e, 0x16, 0xee, 0xff, 0xdf, 0xf7, 0x3c, 0x14, 
    0x2b, 0x98, 0xd4, 0xc0, 0x9b, 0x36, 0x9f, 0x5f, 0xa6, 0xc5, 0x56, 0x3a, 
    0x23, 0x59, 0x17, 0x67, 0x1c, 0x18, 0xa1, 0x92, 0xde, 0x21, 0x16, 0x60, 
    0xe7, 0xad, 0xab, 0xb9, 0x9a, 0xda, 0xe8, 0xe6, 0x59, 0x57, 0x0f, 0x97, 
    0x61, 0xbe, 0x99, 0x3d, 0xbf, 0x35, 0x4d, 0xbe, 0xcf, 0xd1, 0x4b, 0x4a, 
    0xd2, 0xa2, 0xc8, 0x49, 0x14, 0x07, 0xda, 0x66, 0x0b, 0xac, 0xdf, 0x01, 
    0x3a, 0xb1, 0x26, 0x0b, 0x91, 0x68, 0x47, 0xc6, 0xef, 0x45, 0x24, 0x15, 
    0x2c, 0x25, 0x1e, 0xc5, 0x05, 0xd2, 0x9b, 0xce, 0x27, 0x9e, 0x21, 0xc2, 
    0x1e, 0x13, 0x90, 0xd0, 0x75, 0x0f, 0x44, 0xc3, 0xf5, 0x12, 0x93, 0x5b, 
    0xd3, 0x04, 0xee, 0x10, 0x07, 0x9d, 0xc6, 0x37, 0xc7, 0x65, 0x34, 0x41, 
    0x42, 0xce, 0x32, 0x0f, 0x19, 0x55, 0xbc, 0xcc, 0x8d, 0xcb, 0x3e, 0xb3, 
    0x45, 0x58, 0x4f, 0x4e, 0xd1, 0xfd, 0xf2, 0x45, 0x5d, 0xdc, 0x4d, 0xd5, 
    0x46, 0x5d, 0xbf, 0x3b, 0xc4, 0x71, 0xff, 0x1b, 0xd3, 0xd8, 0x00, 0x50, 
    0xe8, 0xcc, 0xc5, 0xcb, 0x70, 0x24, 0xb1, 0xd8, 0xa6, 0x22, 0x2f, 0x4b, 
    0xc9, 0x43, 0xb3, 0x10, 0xd7, 0x4e, 0x33, 0x8a, 0xd9, 0x39, 0x12, 0x01, 
    0xf9, 0xdd, 0x3a, 0x3d, 0x24, 0xbf, 0xb5, 0x4e, 0x3d, 0x16, 0xaa, 0xb2, 
    0xfd, 0x9b, 0xef, 0x4e, 0x3c, 0xdd, 0x2d, 0xe6, 0x62, 0xbb, 0x39, 0xfb, 
    0xc3, 0x6e, 0x11, 0x65, 0x43, 0xc3, 0x58, 0x16, 0x1f, 0xf5, 0xff, 0xcf, 
    0xb2, 0x59, 0x63, 0xdf, 0xac, 0x91, 0xf7, 0x2d, 0x51, 0xb7, 0x49, 0xb3, 
    0x22, 0x97, 0xbf, 0x0b, 0x24, 0xed, 0x9f, 0x31, 0xb8, 0xe0, 0xb9, 0x2e, 
    0x09, 0x56, 0xb8, 0x37, 0x1f, 0xf9, 0xcc, 0xe7, 0x2a, 0x47, 0x8d, 0xd0, 
    0x13, 0xca, 0x66, 0x04, 0x8c, 0x4f, 0x5a, 0xaf, 0xcd, 0xe2, 0xfa, 0xa0, 
    0xc9, 0xa6, 0x8b, 0xd0, 0x54, 0x3a, 0x6c, 0x95, 0xc0, 0xf1, 0x64, 0x23, 
    0xc7, 0x53, 0x20, 0x11, 0xf7, 0xc1, 0x08, 0xbc, 0x53, 0x9e, 0xc3, 0xf3, 
    0x0a, 0xf5, 0xb2, 0xe7, 0x3b, 0x42, 0x4a, 0xe7, 0x52, 0x5a, 0x50, 0x48, 
    0x94, 0xab, 0x1c, 0xe5, 0xfa, 0x0e, 0x3e, 0xbf, 0x24, 0xbb, 0x13, 0x98, 
    0xa2, 0x03, 0x19, 0xe5, 0x01, 0x45, 0x29, 0x4d, 0x49, 0x3e, 0xc1, 0xe2, 
    0xfe, 0x31, 0x90, 0x63, 0x24, 0xbc, 0x61, 0xb3, 0xc1, 0xfc, 0xca, 0xd4, 
    0xd8, 0xd8, 0x08, 0xad, 0x23, 0x95, 0x5e, 0x86, 0x01, 0xa9, 0x08, 0x0d, 
    0x97, 0xbb, 0xa2, 0x09, 0x04, 0xa8, 0x18, 0x5a, 0x47, 0xc3, 0xdf, 0x73, 
    0xfa, 0xe4, 0xaa, 0xf9, 0x1c, 0x2f, 0x4f, 0x0c, 0xe2, 0x62, 0x4b, 0x6a, 
    0x9d, 0xfe, 0xd0, 0x2b, 0x29, 0x20, 0x6d, 0x05, 0xf1, 0xc4, 0x40, 0xe3, 
    0xb6, 0x2d, 0x18, 0xe4, 0xb9, 0x4d, 0x30, 0x6b, 0x3d, 0xa3, 0x5e, 0x42, 
    0x98, 0xb2, 0x17, 0xbd, 0x4e, 0x20, 0x46, 0x5e, 0x0a, 0x6f, 0xf9, 0xdc, 
    0x67, 0xd1, 0x30, 0xff, 0x5e, 0x5b, 0xbf, 0xd6, 0xd6, 0x49, 0xd9, 0x99, 
    0xfc, 0xa2, 0x50, 0x70, 0x2c, 0xda, 0xcc, 0xae, 0x65, 0xc3, 0x49, 0x10, 
    0x43, 0xe9, 0xa2, 0x98, 0xdf, 0x04, 0xa3, 0x9a, 0xee, 0x6d, 0xab, 0xf3, 
    0xfe, 0x2d, 0x6b, 0xd8, 0x5e, 0x27, 0x40, 0xc7, 0xca, 0x0a, 0xa0, 0x1a, 
    0xfe, 0x70, 0xcc, 0xc8, 0x2a, 0x3a, 0x14, 0x0e, 0x15, 0x42, 0xc2, 0x35, 
    0xa0, 0x94, 0x06, 0x68, 0x73, 0xf1, 0x5c, 0xf4, 0x97, 0x4a, 0xe0, 0xc3, 
    0x24, 0x07, 0xf3, 0xa8, 0xf9, 0x9a, 0x43, 0x3d, 0xf7, 0xf9, 0x47, 0x2b, 
    0xe8, 0xaf, 0x20, 0xa7, 0x9d, 0xb8, 0xc9, 0xea, 0x93, 0x23, 0x1e, 0x2b, 
    0xdf, 0xec, 0xed, 0x56, 0x3d, 0xea, 0x23, 0xbb, 0x34, 0xee, 0xe5, 0xeb, 
    0xe1, 0xde, 0x45, 0xe5, 0x18, 0xfe, 0xad, 0xfb, 0xe3, 0xd6, 0x87, 0x45, 
    0xd9, 0xb1, 0xd6, 0xf5, 0x99, 0x3d, 0x69, 0x4a, 0xb0, 0xa7, 0x96, 0xf3, 
    0x45, 0xad, 0xea, 0xe4, 0x13, 0x30, 0x6c, 0xe7, 0x56, 0xc6, 0xce, 0x33, 
    0xe9, 0x0d, 0x9c, 0xce, 0x39, 0xd9, 0x4e, 0x36, 0xfc, 0xe0, 0x0c, 0x1b, 
    0x92, 0xe4, 0x04, 0xad, 0x5c, 0x28, 0xc9, 0x5b, 0xa4, 0xd4, 0x04, 0x9a, 
    0xc7, 0x45, 0x31, 0x1f, 0x48, 0x36, 0x60, 0x00, 0x09, 0x34, 0xe7, 0x27, 
    0xc2, 0x61, 0xc3, 0x5e, 0xd1, 0x39, 0xb6, 0xd2, 0xcb, 0x52, 0x54, 0xd5, 
    0x2d, 0x5d, 0x96, 0x4c, 0xc5, 0xab, 0xd2, 0xc5, 0x2a, 0xb6, 0x6f, 0x8e, 
    0x39, 0xbe, 0xbd, 0x44, 0xb0, 0x01, 0xbf, 0xe4, 0xc0, 0x67, 0x66, 0xdd, 
    0xf2, 0x9f, 0xb8, 0x24, 0xd2, 0xf0, 0xac, 0x3c, 0x84, 0x42, 0x9c, 0xbd, 
    0xd4, 0x2f, 0x6d, 0xd1, 0xf8, 0x3d, 0x28, 0xb5, 0x0c, 0x49, 0x22, 0x90, 
    0xd5, 0x9c, 0x1e, 0xee, 0x5f, 0x9a, 0x34, 0xc7, 0x63, 0xe8, 0xc7, 0x49, 
    0xdf, 0x34, 0xe3, 0xd4, 0xce, 0xce, 0x3b, 0x0b, 0x61, 0x14, 0xc3, 0x45, 
    0xdc, 0x4f, 0x4f, 0xa4, 0x41, 0x24, 0x2c, 0xfd, 0xd1, 0xc6, 0x19, 0x45, 
    0xc2, 0xc9, 0xd3, 0xa7, 0x35, 0x50, 0x34, 0x85, 0x08, 0x79, 0xc8, 0xc9, 
    0x86, 0xe4, 0x08, 0x35, 0x04, 0xf8, 0xb4, 0xd2, 0x5b, 0xa7, 0xea, 0xed, 
    0x84, 0x22, 0xce, 0xa5, 0xde, 0xa8, 0x19, 0xcc, 0xa7, 0x3b, 0x60, 0xde, 
    0xef, 0x2c, 0xf8, 0x5e, 0x16, 0xa9, 0x67, 0x8e, 0x45, 0x31, 0xc0, 0xc6, 
    0x48, 0x28, 0xe1, 0x38, 0x0f, 0x05, 0x30, 0x18, 0xe0, 0xd6, 0xb1, 0x71, 
    0xc6, 0x2c, 0x3c, 0xe4, 0xb5, 0x31, 0x43, 0xf0, 0xe4, 0x50, 0xe9, 0xc8, 
    0xee, 0x3d, 0x09, 0x33, 0x3f, 0xd0, 0x54, 0xbf, 0xe2, 0xb4, 0x90, 0xf3, 
    0xeb, 0xda, 0x57, 0xa2, 0x43, 0x8b, 0x4a, 0xec, 0x67, 0x43, 0x21, 0x64, 
    0xc4, 0x9c, 0xeb, 0x8b, 0x00, 0x3b, 0x9e, 0xf3, 0xd1, 0x9f, 0x61, 0x6f, 
    0x10, 0x07, 0x23, 0x6d, 0xa1, 0x3e, 0xaf, 0x62, 0x10, 0x63, 0x36, 0x6c, 
    0x57, 0x44, 0x11, 0x9f, 0x3e, 0x14, 0xc3, 0x19, 0x1f, 0xc6, 0xa6, 0x47, 
    0xe5, 0x61, 0x1f, 0x3a, 0xb4, 0xc4, 0xf0, 0x1a, 0xb1, 0xeb, 0x64, 0x5e, 
    0xe1, 0x32, 0x24, 0x09, 0xa4, 0x46, 0xb9, 0x2e, 0x5f, 0x20, 0x61, 0xf2, 
    0x93, 0x1f, 0xc0, 0x56, 0xb8, 0xde, 0x65, 0x2a, 0x1d, 0x08, 0xce, 0x19, 
    0x22, 0x98, 0xde, 0xff, 0xa8, 0x09, 0xae, 0xec, 0x41, 0xc7, 0x9c, 0x25, 
    0xa8, 0xaa, 0x9c, 0xb1, 0x9f, 0xe8, 0x67, 0xd7, 0x32, 0x1f, 0xed, 0xf4, 
    0x5e, 0xb8, 0x1f, 0xd1, 0x0e, 0x34, 0x0b, 0x03, 0xbb, 0x5f, 0x6c, 0x63, 
    0x45, 0x2b, 0xfc, 0x59, 0xc6, 0x56, 0x36, 0x49, 0x43, 0x64, 0x12, 0x60, 
    0xc9, 0xf0, 0xfb, 0xf8, 0x8e, 0x99, 0xb5, 0x99, 0x4b, 0xbc, 0x99, 0x15, 
    0x56, 0x95, 0xa0, 0xd1, 0xcf, 0xb1, 0x5e, 0xbd, 0x24, 0x19, 0xca, 0xb4, 
    0xc1, 0x38, 0xf4, 0x6d, 0x6a, 0x19, 0xce, 0x12, 0xa8, 0xfb, 0x05, 0xab, 
    0xc4, 0xe6, 0x56, 0x62, 0x89, 0xa8, 0x3a, 0xd6, 0x90, 0xe9, 0x0e, 0xb5, 
    0x1c, 0xde, 0xf1, 0x32, 0xfd, 0x0c, 0x23, 0xd8, 0x67, 0x22, 0xfc, 0xbc, 
    0xb7, 0x08, 0x18, 0x2a, 0xd0, 0xaa, 0xd9, 0x23, 0xed, 0xa8, 0xf7, 0x44, 
    0x65, 0x04, 0x0a, 0xf7, 0xe2, 0x58, 0x3c, 0x5d, 0x1c, 0xd6, 0xc3, 0x4b, 
    0x5e, 0xa5, 0xae, 0x52, 0x22, 0x39, 0xd5, 0x0b, 0x0b, 0xf2, 0x20, 0xa9, 
    0x24, 0xfe, 0x36, 0x8b, 0xea, 0x4d, 0x90, 0x0b, 0xa7, 0x56, 0xd9, 0x4b, 
    0xe9, 0xb8, 0x9d, 0xc7, 0x98, 0x5e, 0x13, 0xa2, 0xf5, 0xfa, 0x24, 0xdb, 
    0x71, 0x22, 0xf3, 0x21, 0xd7, 0x30, 0x0d, 0x06, 0x68, 0x3e, 0xc1, 0x67, 
    0xef, 0x09, 0xca, 0xe5, 0xb0, 0x9d, 0x47, 0x6a, 0xd2, 0x90, 0xed, 0x6f, 
    0xb6, 0xe7, 0x18, 0xed, 0xa8, 0x5a, 0xd5, 0x8e, 0x2d, 0x49, 0xad, 0xb2, 
    0x74, 0x56, 0xc2, 0xbc, 0x4e, 0x9b, 0x6d, 0x4a, 0x50, 0xe0, 0x96, 0x6e, 
    0x56, 0x4b, 0x03, 0xdd, 0xe6, 0x30, 0x29, 0x08, 0xb4, 0xec, 0x4c, 0x3b, 
    0x43, 0x0a, 0x3c, 0xe3, 0x26, 0x14, 0x6c, 0xec, 0xa0, 0x34, 0x70, 0x4c, 
    0x68, 0xb8, 0x2d, 0x56, 0x15, 0x33, 0xa1, 0x5d, 0xf2, 0xe8, 0xbd, 0xcc, 
    0x95, 0x1a, 0xab, 0xa4, 0xcd, 0xf6, 0x1f, 0x37, 0x9d, 0xf4, 0xeb, 0x41, 
    0xcf, 0x9e, 0xff, 0xe8, 0xba, 0x59, 0xf3, 0xff, 0x9d, 0xe5, 0x32, 0xb9, 
    0xd4, 0xc4, 0xd0, 0x6e, 0xff, 0x5a, 0x9b, 0xf9, 0x1e, 0x5d, 0xe7, 0x52, 
    0x2d, 0x39, 0x9d, 0xab, 0xf5, 0xa4, 0x93, 0x1d, 0xbf, 0x5f, 0x08, 0x3c, 
    0x2c, 0x42, 0xc9, 0x92, 0x95, 0xad, 0xd1, 0x11, 0x9f, 0x6d, 0xbc, 0x0e, 
    0x2a, 0xee, 0x2b, 0xf6, 0x62, 0x69, 0x6e, 0xad, 0xec, 0x0e, 0x69, 0xb4, 
    0x08, 0xcf, 0xae, 0x03, 0xad, 0x26, 0xfa, 0xa0, 0x03, 0x01, 0xde, 0x0e, 
    0x4c, 0xf6, 0x17, 0x9e, 0x10, 0x69, 0x5e, 0xc9, 0x1e, 0xe6, 0xc6, 0x9e, 
    0x1d, 0x14, 0x0b, 0x00, 0xb9, 0xcf, 0x5a, 0x52, 0x56, 0x98, 0x67, 0xe3, 
    0x4d, 0x32, 0x55, 0x39, 0x45, 0x48, 0x22, 0xa8, 0x1c, 0x19, 0x64, 0xe9, 
    0xfd, 0x57, 0xbe, 0xd5, 0x3c, 0x3f, 0xcd, 0x5c, 0xf0, 0xc4, 0xe3, 0xdc, 
    0x28, 0x31, 0x19, 0xa3, 0xe0, 0x1d, 0x1d, 0xd5, 0x9c, 0xd2, 0xac, 0x23, 
    0xc4, 0x99, 0x14, 0xbd, 0xbc, 0xf6, 0x52, 0xff, 0x95, 0x9f, 0x91, 0x2f, 
    0xcb, 0x0a, 0xc0, 0xc8, 0x53, 0xf7, 0xec, 0x1b, 0xba, 0xa2, 0xc5, 0xcf, 
    0xc5, 0x4e, 0xaa, 0xaa, 0x8f, 0x45, 0x5f, 0xdb, 0x18, 0xc5, 0x8e, 0x12, 
    0xac, 0xc6, 0x2a, 0x4e, 0x1e, 0x0c, 0x55, 0xb5, 0x5a, 0x12, 0xee, 0xcf, 
    0xb8, 0xc3, 0x65, 0xd3, 0xf6, 0xf8, 0x0f, 0xed, 0xa4, 0x3a, 0x16, 0xff, 
    0xdc, 0xde, 0x01, 0x9d, 0x39, 0x1f, 0x3f, 0x9d, 0x2a, 0xb6, 0x45, 0x5e, 
    0xb1, 0xfa, 0xbf, 0xcc, 0x0e, 0x5d, 0xea, 0xf4, 0x60, 0xcb, 0x09, 0x4e, 
    0x28, 0xe2, 0x59, 0xc8, 0x49, 0x35, 0x26, 0xc6, 0xb6, 0x63, 0xd9, 0xd3, 
    0xd7, 0xc8, 0x16, 0xfe, 0xe2, 0x3f, 0x36, 0x2b, 0x00, 0x2e, 0xf5, 0xb1, 
    0x5e, 0xce, 0xec, 0xae, 0x08, 0xa5, 0xb5, 0xa2, 0xf3, 0x11, 0xf0, 0x30, 
    0xfb, 0xf0, 0x27, 0xed, 0x55, 0x24, 0x67, 0x1f, 0xc5, 0x37, 0xad, 0x03, 
    0xe0, 0x91, 0x67, 0xd9, 0xa4, 0xf4, 0x5c, 0x31, 0xcb, 0x97, 0x39, 0x8d, 
    0x44, 0x6d, 0x21, 0x04, 0x2d, 0x5f, 0xb5, 0x63, 0x13, 0x43, 0x3b, 0x9b, 
    0xc8, 0x3d, 0x0f, 0x54, 0xdd, 0x1b, 0xc8, 0xb5, 0x11, 0xfc, 0xda, 0x94, 
    0xb8, 0xb0, 0xd5, 0xc4, 0xee, 0xbb, 0x5b, 0xa4, 0x1f, 0xe9, 0xb9, 0xb9, 
    0xa7, 0xf4, 0x04, 0x21, 0xaa, 0xa8, 0xfc, 0x58, 0xc6, 0xa2, 0x4f, 0xa8, 
    0x90, 0xcd, 0x3b, 0x23, 0x0b, 0x03, 0x6a, 0x73, 0x58, 0x01, 0x31, 0x97, 
    0xe5, 0x3c, 0x0b, 0xbe, 0xd1, 0xbd, 0x17, 0x67, 0xff, 0xf1, 0x4b, 0x05, 
    0xb0, 0x3d, 0x51, 0x97, 0xd6, 0x33, 0xf9, 0x57, 0x62, 0x39, 0x74, 0x55, 
    0xf0, 0x6e, 0x04, 0x39, 0xe5, 0xd4, 0xe0, 0xea, 0x6d, 0x4f, 0xd7, 0xcf, 
    0x63, 0x04, 0xe9, 0x45, 0xa9, 0x1f, 0x0d, 0x31, 0xb7, 0x95, 0x62, 0x1f, 
    0x8c, 0xac, 0x5a, 0xa6, 0x06, 0xb3, 0xbf, 0x35, 0x0f, 0x28, 0xc4, 0x57, 
    0xe4, 0x66, 0x1f, 0xb3, 0xc6, 0x59, 0xf2, 0xf1, 0x45, 0xef, 0x03, 0x6a, 
    0xe4, 0xf4, 0xa8, 0x0e, 0x94, 0xcb, 0x94, 0xed, 0xe0, 0x57, 0xcb, 0x60, 
    0xe9, 0x9d, 0x9e, 0x01, 0x2b, 0x71, 0x48, 0xc8, 0x09, 0x10, 0x4e, 0x0f, 
    0x0a, 0x00, 0x05, 0x51, 0xf6, 0x00, 0x66, 0xae, 0xa6, 0xf5, 0x42, 0xef, 
    0x0e, 0xf7, 0x3e, 0xf8, 0xea, 0x51, 0x9b, 0xdb, 0x04, 0x95, 0x51, 0xef, 
    0x01, 0x18, 0x38, 0x8b, 0xcd, 0x9c, 0x28, 0x19, 0xff, 0xbb, 0x99, 0xca, 
    0x41, 0xe3, 0xdc, 0x34, 0xed, 0xb5, 0xc5, 0x35, 0x6c, 0x70, 0x62, 0x4e, 
    0xdb, 0x45, 0x2a, 0xfd, 0x3f, 0xc4, 0x5e, 0x0f, 0x65, 0x11, 0x41, 0x3b, 
    0xf5, 0x9c, 0x48, 0xcb, 0x6d, 0xae, 0xb7, 0x30, 0x56, 0x9d, 0xa9, 0x08, 
    0x08, 0xaa, 0xba, 0x54, 0xb9, 0xab, 0x98, 0x33, 0xd6, 0xf2, 0x18, 0xf1, 
    0x64, 0xaa, 0x0a, 0x9f, 0x16, 0x50, 0xd9, 0x9d, 0xbe, 0xfc, 0x5e, 0x34, 
    0x1e, 0xd0, 0xa4, 0xe6, 0xd3, 0xc3, 0xc7, 0xa7, 0xd5, 0xbc, 0x19, 0xdd, 
    0x5a, 0x34, 0xd9, 0xa5, 0x50, 0x2a, 0xb9, 0xe5, 0x6a, 0x57, 0xdf, 0x2d, 
    0x18, 0xf2, 0xb7, 0xd3, 0xdc, 0x5b, 0x5f, 0x2d, 0x59, 0xa4, 0xeb, 0x72, 
    0xec, 0xc5, 0xd2, 0x46, 0xaf, 0xa2, 0x47, 0x25, 0xf0, 0x27, 0x4b, 0x2e, 
    0x94, 0x3f, 0x35, 0xab, 0x08, 0xd4, 0x6f, 0x0e, 0x31, 0x18, 0xbd, 0xf5, 
    0x98, 0xe3, 0xa7, 0xbb, 0x4d, 0x34, 0xc4, 0x01, 0x8e, 0x42, 0x9e, 0xf9, 
    0x33, 0xe6, 0x1f, 0x0f, 0xe2, 0x53, 0xc0, 0xfe, 0x1a, 0xb5, 0xd0, 0x12, 
    0xe5, 0xcf, 0xbf, 0xb6, 0x23, 0x2d, 0x07, 0x0b, 0xb8, 0x0b, 0x5e, 0x5a, 
    0x04, 0x93, 0x20, 0x36, 0x0c, 0xe0, 0x27, 0xed, 0x55, 0x5d, 0x50, 0x4c, 
    0x21, 0x71, 0xfb, 0x2c, 0xc8, 0xd0, 0x65, 0x8c, 0xba, 0x57, 0x41, 0xb5, 
    0xcf, 0x15, 0xff, 0xab, 0x1e, 0x24, 0xf6, 0x0b, 0x3e, 0x5f, 0x5c, 0x9e, 
    0xf8, 0xd5, 0x62, 0xef, 0x04, 0x15, 0xe2, 0x5e, 0xcf, 0x4f, 0xaa, 0x16, 
    0x49, 0x4a, 0xcf, 0x9b, 0x42, 0xea, 0xad, 0x40, 0xf9, 0x01, 0xba, 0xc3, 
    0x9d, 0x57, 0x3d, 0x9b, 0x06, 0x29, 0xcf, 0xeb, 0x1e, 0x16, 0x66, 0xdc, 
    0x0d, 0x11, 0x51, 0x34, 0x52, 0x9e, 0x67, 0x08, 0xb1, 0x35, 0xb8, 0x5a, 
    0x70, 0x34, 0xce, 0x2e, 0xb3, 0x29, 0xf9, 0xf6, 0x3a, 0x4b, 0xd4, 0xd0, 
    0x15, 0x70, 0x00, 0x52, 0xb4, 0xaf, 0x69, 0xd4, 0xb1, 0xab, 0xd1, 0x61, 
    0xe6, 0x94, 0x41, 0xa1, 0x09, 0xd0, 0x63, 0x13, 0xe4, 0xf8, 0xde, 0xd5, 
    0xc5, 0x32, 0x42, 0xde, 0xa4, 0x0e, 0xda, 0xda, 0xf2, 0x07, 0x46, 0xbe, 
    0xba, 0xf6, 0xfd, 0x98, 0xab, 0xa1, 0x0b, 0xb2, 0x5c, 0x04, 0xb5, 0x90, 
    0x34, 0x18, 0x1e, 0x57, 0xc6, 0xf3, 0x18, 0xd9, 0x09, 0x6f, 0x15, 0xca, 
    0x61, 0xdd, 0x00, 0x98, 0x24, 0xc8, 0xd9, 0xba, 0x69, 0x3a, 0x0c, 0xb0, 
    0x36, 0x6f, 0xe0, 0x5f, 0xca, 0x1b, 0x46, 0x11, 0xce, 0xc1, 0xae, 0xc9, 
    0xf2, 0x15, 0x05, 0xd0, 0x12, 0xac, 0xc3, 0x6c, 0xc8, 0xae, 0xd1, 0xad, 
    0xe9, 0x4e, 0xd2, 0xd1, 0x9c, 0x62, 0xce, 0xce, 0xe3, 0x6d, 0xb4, 0x61, 
    0x35, 0xc7, 0x94, 0x1b, 0xb8, 0x42, 0x4d, 0x31, 0xc9, 0x1d, 0xe0, 0x0a, 
    0x33, 0xcb, 0x39, 0x4a, 0xab, 0xd7, 0xcd, 0xab, 0xca, 0xc1, 0xea, 0xc2, 
    0xcb, 0xfe, 0xb6, 0x28, 0xa7, 0x37, 0x57, 0xec, 0x41, 0xe2, 0x59, 0x3c, 
    0x30, 0xf0, 0xa4, 0x3c, 0xb2, 0x8b, 0x29, 0xf0, 0x22, 0x2e, 0x48, 0x0a, 
    0xb1, 0x2f, 0xe6, 0x64, 0xe3, 0x1f, 0xbc, 0x23, 0x19, 0x34, 0xc1, 0x19, 
    0xad, 0x42, 0x2d, 0x1d, 0x40, 0x62, 0x10, 0x3f, 0xf6, 0x17, 0xe0, 0x10, 
    0x54, 0x2a, 0x2e, 0x28, 0xe7, 0xbd, 0xa6, 0xfd, 0x6b, 0x16, 0x19, 0xbe, 
    0xe9, 0x0b, 0xd7, 0xf4, 0xba, 0xf6, 0x91, 0xce, 0xa6, 0xbb, 0x1d, 0xa1, 
    0xca, 0xd0, 0xdf, 0xab, 0xc9, 0xff, 0xef, 0xcf, 0xeb, 0x92, 0x55, 0xa0, 
    0xc7, 0xcd, 0x3a, 0x21, 0xce, 0xe7, 0x3c, 0x4a, 0x43, 0x03, 0x6d, 0xbd, 
    0xa6, 0x6c, 0x2b, 0x64, 0x64, 0x00, 0x17, 0x47, 0xe5, 0xd5, 0x4b, 0x9e, 
    0xda, 0xb5, 0x53, 0x45, 0x0b, 0xa7, 0xd9, 0x45, 0x6a, 0xa1, 0x1f, 0x2f, 
    0xdc, 0xee, 0xed, 0x5d, 0xe0, 0xaf, 0xbd, 0xb6, 0x1a, 0x5d, 0x8a, 0xae, 
    0xb9, 0xa8, 0x23, 0x2d, 0xcb, 0xcf, 0xa3, 0x89, 0x0c, 0xd6, 0xb1, 0x32, 
    0x65, 0x48, 0x3a, 0x3b, 0xeb, 0xcb, 0xa7, 0x65, 0xb0, 0x43, 0x0e, 0xae, 
    0x0b, 0xcb, 0x93, 0xad, 0xea, 0xd3, 0xd7, 0xc7, 0xc7, 0xbf, 0xbe, 0xf2, 
    0xfd, 0xc3, 0x5a, 0xe1, 0xad, 0xbf, 0xf8, 0x0d, 0x67, 0x17, 0x25, 0xe0, 
    0x3a, 0x58, 0x5f, 0x9a, 0x5b, 0xcd, 0x75, 0x3d, 0x15, 0x40, 0xf7, 0xd5, 
    0x54, 0x5a, 0xfb, 0xe9, 0xdf, 0xf8, 0xaf, 0xc0, 0x7b, 0x3d, 0xa4, 0x3d, 
    0xa9, 0x1c, 0x4b, 0xc7, 0xfe, 0xfa, 0x40, 0x49, 0xc7, 0xd0, 0xe0, 0xbc, 
    0xe1, 0xb5, 0x98, 0xb6, 0xb3, 0xe4, 0xfb, 0xbf, 0x95, 0xe0, 0x1b, 0xe2, 
    0xaa, 0xc8, 0x2f, 0xf0, 0x2a, 0xf3, 0xd9, 0x29, 0xfd, 0x31, 0x68, 0x6b, 
    0x2b, 0xcf, 0x5e, 0x68, 0x65, 0x1a, 0xe8, 0xad, 0x0c, 0x56, 0x38, 0x99, 
    0x60, 0x2f, 0x95, 0x19, 0x02, 0x04, 0x95, 0xd5, 0x04, 0xab, 0xb3, 0xae, 
    0x10, 0xbc, 0xe6, 0xbb, 0x9b, 0x1d, 0x50, 0x95, 0x51, 0x24, 0x3e, 0x3b, 
    0x6a, 0x8a, 0xdd, 0xb4, 0xfd, 0xc8, 0x86, 0xed, 0xd2, 0x90, 0xea, 0x97, 
    0xf2, 0x6d, 0xf4, 0xc7, 0xe9, 0x59, 0x8f, 0xf8, 0x56, 0xf9, 0x44, 0xc1, 
    0x05, 0x1d, 0x9c, 0xb1, 0xde, 0xaf, 0xbe, 0x55, 0x1e, 0x9c, 0xc3, 0x12, 
    0x67, 0x9a, 0x35, 0xfb, 0xb3, 0xd0, 0x25, 0x1d, 0xba, 0x44, 0x01, 0xff, 
    0x65, 0xa3, 0xdb, 0x1b, 0x54, 0xed, 0x15, 0x54, 0xdc, 0x0b, 0x8f, 0xd3, 
    0xa1, 0x2a, 0x58, 0x4d, 0xb5, 0xf7, 0xf8, 0xa6, 0xca, 0x3b, 0xdc, 0xd5, 
    0xdb, 0xf3, 0xc2, 0x42, 0x0a, 0x63, 0x4d, 0x28, 0x60, 0xf4, 0x37, 0xc0, 
    0x60, 0x21, 0x61, 0xb3, 0x72, 0x36, 0x21, 0x18, 0xe0, 0x3c, 0xa1, 0xe5, 
    0x04, 0x0e, 0xc9, 0x2d, 0xa6, 0x01, 0x3c, 0x19, 0x31, 0xa0, 0x01, 0x08, 
    0x3e, 0x15, 0x34, 0x26, 0x35, 0x31, 0x6e, 0x90, 0x4a, 0x65, 0x97, 0x5c, 
    0x23, 0xfa, 0xb7, 0xe3, 0x6d, 0x65, 0x14, 0xff, 0xb3, 0xdc, 0x4f, 0xfa, 
    0xcf, 0x5e, 0xd8, 0x5a, 0x22, 0xca, 0xb8, 0x45, 0x30, 0x00, 0xa6, 0xa3, 
    0xb1, 0x30, 0xba, 0xcc, 0x51, 0xfc, 0x52, 0xb9, 0xb6, 0x34, 0xac, 0xbe, 
    0x47, 0x5a, 0x41, 0x20, 0x8b, 0x9f, 0xee, 0x44, 0x6d, 0xb9, 0x5c, 0xf8, 
    0x2d, 0x53, 0x42, 0x44, 0xc0, 0x0e, 0xca, 0xd6, 0xfd, 0x21, 0xda, 0xc4, 
    0x15, 0x28, 0x55, 0x2b, 0x55, 0xe5, 0xf4, 0x61, 0x21, 0x19, 0xbd, 0xa6, 
    0xc6, 0x8e, 0x58, 0xed, 0x58, 0x4a, 0x4e, 0x00, 0x35, 0xb4, 0xed, 0xff, 
    0x4f, 0x27, 0xfc, 0xe6, 0x21, 0x0a, 0xbc, 0x91, 0xfa, 0xef, 0x0d, 0x4a, 
    0xb5, 0x73, 0xbe, 0x28, 0x50, 0x08, 0xf8, 0xba, 0x3f, 0xde, 0x75, 0x07, 
    0xfc, 0xe9, 0xf2, 0xa0, 0x2f, 0xb0, 0xa8, 0x49, 0xdd, 0xae, 0xfd, 0x70, 
    0x3f, 0x17, 0x5c, 0xc1, 0x0b, 0x9d, 0x37, 0x9d, 0xeb, 0x49, 0x12, 0xa4, 
    0xe4, 0x28, 0xc6, 0xde, 0xb6, 0xd7, 0xe9, 0x5d, 0x0f, 0xdb, 0xbc, 0x55, 
    0x52, 0x55, 0xf9, 0x3c, 0xfa, 0x37, 0xc8, 0x16, 0xd6, 0x58, 0xfe, 0xa0, 
    0x2f, 0xac, 0xf8, 0x33, 0xe4, 0xe7, 0xb7, 0x3d, 0x14, 0x2b, 0x0c, 0x2b, 
    0x19, 0xdd, 0x6c, 0x5f, 0x07, 0xe9, 0xc8, 0x14, 0x22, 0x08, 0xb7, 0x21, 
    0x92, 0xe5, 0x2d, 0x16, 0xea, 0xf4, 0xbf, 0xab, 0xfc, 0xb7, 0xbe, 0x6f, 
    0x2d, 0x2f, 0x48, 0x02, 0xbc, 0x44, 0x10, 0x92, 0xbc, 0xf4, 0x9f, 0xf7, 
    0x91, 0x47, 0xe1, 0x6f, 0xe4, 0x70, 0xde, 0x6e, 0x04, 0x22, 0x1e, 0x44, 
    0xeb, 0x48, 0x59, 0xbc, 0x1e, 0xc9, 0x0a, 0x92, 0x10, 0xa9, 0xd8, 0x64, 
    0xcd, 0xcb, 0x51, 0x15, 0x41, 0x64, 0xb7, 0xbe, 0x2a, 0x20, 0xac, 0x90, 
    0x6f, 0x1d, 0xc1, 0x5d, 0x60, 0x36, 0x9c, 0x23, 0x43, 0xe6, 0xf1, 0x03, 
    0xd6, 0x21, 0xd1, 0x35, 0xe9, 0x00, 0x25, 0xc3, 0xed, 0x4a, 0xc8, 0xa9, 
    0xa5, 0x57, 0x4a, 0xf4, 0x44, 0x1d, 0x28, 0x95, 0xac, 0x8a, 0xe7, 0xbf, 
    0x20, 0x5e, 0xd0, 0xf9, 0xf8, 0x32, 0x22, 0xab, 0xf4, 0x93, 0xce, 0x94, 
    0x13, 0xcb, 0x9b, 0xa1, 0xcb, 0x17, 0x16, 0x9e, 0x69, 0x51, 0x40, 0xe2, 
    0xfc, 0xe7, 0x65, 0x03, 0x12, 0xb2, 0xf9, 0x16, 0xad, 0x9a, 0x3a, 0x15, 
    0xe1, 0x5d, 0x92, 0x17, 0x19, 0x58, 0x5a, 0xd8, 0x12, 0xec, 0xea, 0xcd, 
    0xa6, 0xbc, 0x71, 0x93, 0x3a, 0xd4, 0x3c, 0xa6, 0x33, 0x16, 0x6d, 0x73, 
    0xca, 0xdd, 0x50, 0x0c, 0x1b, 0xf7, 0xed, 0xaf, 0x55, 0x42, 0xad, 0xa8, 
    0xaf, 0x69, 0x04, 0x05, 0xb2, 0xf6, 0xcb, 0x44, 0xa4, 0xf9, 0xa9, 0x26, 
    0x8c, 0x21, 0x3f, 0xc9, 0xc9, 0x9d, 0xd3, 0x2c, 0x08, 0xe8, 0xa3, 0x38, 
    0xf0, 0xfa, 0x3a, 0x50, 0xd7, 0x2e, 0x61, 0x91, 0x49, 0xa2, 0x74, 0x22, 
    0x18, 0xda, 0xc3, 0x59, 0xaa, 0x64, 0x1d, 0x9e, 0x52, 0x4b, 0x5b, 0xe6, 
    0xd2, 0xaf, 0x0d, 0x61, 0xb5, 0x59, 0xf3, 0xa2, 0xa6, 0x97, 0xb7, 0xa5, 
    0xbd, 0x26, 0x37, 0x42, 0xb0, 0x2f, 0x3f, 0x1b, 0x1a, 0x54, 0x31, 0x44, 
    0x27, 0x59, 0xdf, 0xfe, 0x58, 0xd6, 0xcf, 0xca, 0xb9, 0x04, 0xa0, 0xb6, 
    0x60, 0x97, 0x57, 0xf7, 0x9b, 0xc0, 0x1c, 0x6b, 0xca, 0xd9, 0xa0, 0x9a, 
    0xc0, 0xc9, 0xae, 0xcc, 0x4e, 0xbb, 0x4a, 0x5a, 0x70, 0x67, 0x2d, 0x4b, 
    0x07, 0xc1, 0xaf, 0x1b, 0x44, 0x4a, 0x3f, 0xf6, 0x14, 0xce, 0x55, 0xf7, 
    0x4e, 0x93, 0xd7, 0xc3, 0x93, 0xec, 0x58, 0x1b, 0x20, 0xe6, 0x29, 0x5f, 
    0xb3, 0x9c, 0xa0, 0xd3, 0x3b, 0x07, 0x2b, 0x49, 0x88, 0xca, 0x5e, 0x20, 
    0x89, 0x3b, 0x56, 0x22, 0x9c, 0x8d, 0x09, 0x4c, 0x50, 0x1f, 0x3c, 0x9e, 
    0x62, 0x97, 0xc3, 0xc8, 0xb4, 0xeb, 0x34, 0x3c, 0x2d, 0xe7, 0x45, 0xbe, 
    0x22, 0x93, 0x41, 0x98, 0x2d, 0x45, 0xd4, 0x4f, 0xc7, 0xcb, 0xd8, 0xa4, 
    0x41, 0xd7, 0x38, 0x46, 0xe3, 0x9a, 0xec, 0xbf, 0x38, 0xe5, 0x1b, 0x25, 
    0xf6, 0x4d, 0xb6, 0x9f, 0xd1, 0x9b, 0xb9, 0xd0, 0x9b, 0xb3, 0x25, 0xd0, 
    0x21, 0x3c, 0x5f, 0xf3, 0x45, 0xd1, 0xa4, 0x3e, 0xa8, 0x66, 0x14, 0x34, 
    0x59, 0x72, 0xa8, 0x96, 0xf4, 0x2d, 0xa7, 0x2b, 0xcd, 0xf7, 0xf0, 0xe6, 
    0x0d, 0x64, 0xfd, 0x93, 0xad, 0x06, 0xca, 0x70, 0xe0, 0x6a, 0x33, 0x97, 
    0x9d, 0x70, 0xbc, 0xf4, 0xb4, 0x99, 0x3a, 0xdf, 0x64, 0xc6, 0xec, 0x31, 
    0xcc, 0x51, 0x12, 0xd3, 0x9c, 0x55, 0x53, 0xe7, 0xd7, 0x30, 0xef, 0xae, 
    0xeb, 0xd7, 0x07, 0xb7, 0xf2, 0xb8, 0x94, 0xa6, 0xe8, 0x3f, 0x6f, 0x1b, 
    0x1b, 0x13, 0xfd, 0x2b, 0x7b, 0x3d, 0x3f, 0x9f, 0x0f, 0x6e, 0x66, 0x11, 
    0x60, 0x54, 0xad, 0x70, 0xce, 0x20, 0xda, 0x09, 0xbc, 0x51, 0xd6, 0x24, 
    0x27, 0x0f, 0x0b, 0xc1, 0x3e, 0xdf, 0xf3, 0xc7, 0xca, 0x14, 0x5c, 0xcf, 
    0x06, 0x5c, 0xfb, 0x29, 0x03, 0x01, 0xaf, 0x4b, 0x34, 0xdc, 0xf3, 0x7a, 
    0x1d, 0x1e, 0x2d, 0x11, 0xc4, 0x49, 0x58, 0xfa, 0xa6, 0xfe, 0xff, 0xff, 
    0x04, 0x00, 0x00, 0x00, 0x00, 0x01, 0x00, 0x00, 0xde, 0xfb, 0xff, 0xff, 
    0x64, 0x07, 0x00, 0x00, 0x26, 0xfc, 0xff, 0xff, 0x7e, 0xfc, 0xff, 0xff, 
    0xa6, 0x00, 0x00, 0x00, 0xec, 0xfe, 0xff, 0xff, 0xbd, 0x00, 0x00, 0x00, 
    0xb4, 0xfe, 0xff, 0xff, 0xb3, 0xf9, 0xff, 0xff, 0xd9, 0x02, 0x00, 0x00, 
    0xf7, 0xff, 0xff, 0xff, 0x93, 0x00, 0x00, 0x00, 0xa7, 0xfe, 0xff, 0xff, 
    0x71, 0x05, 0x00, 0x00, 0x79, 0xfe, 0xff, 0xff, 0x1e, 0xfa, 0xff, 0xff, 
    0x54, 0xfd, 0xff, 0xff, 0x5b, 0xfe, 0xff, 0xff, 0xb4, 0xff, 0xff, 0xff, 
    0x07, 0xff, 0xff, 0xff, 0xf3, 0xfa, 0xff, 0xff, 0x3a, 0x01, 0x00, 0x00, 
    0x45, 0xfd, 0xff, 0xff, 0x35, 0x00, 0x00, 0x00, 0xd4, 0xf9, 0xff, 0xff, 
    0x12, 0x02, 0x00, 0x00, 0xd7, 0xf9, 0xff, 0xff, 0xfb, 0xfe, 0xff, 0xff, 
    0xad, 0xfc, 0xff, 0xff, 0x46, 0xfc, 0xff, 0xff, 0xdf, 0x02, 0x00, 0x00, 
    0x50, 0xfe, 0xff, 0xff, 0xac, 0xfd, 0xff, 0xff, 0x9a, 0x03, 0x00, 0x00, 
    0xc6, 0x01, 0x00, 0x00, 0x25, 0x01, 0x00, 0x00, 0x6d, 0xfd, 0xff, 0xff, 
    0x95, 0x01, 0x00, 0x00, 0x6c, 0xfa, 0xff, 0xff, 0x62, 0x01, 0x00, 0x00, 
    0x88, 0x01, 0x00, 0x00, 0xe7, 0x03, 0x00, 0x00, 0xa4, 0xfb, 0xff, 0xff, 
    0xc3, 0xfd, 0xff, 0xff, 0xe5, 0xff, 0xff, 0xff, 0x3f, 0xfc, 0xff, 0xff, 
    0x8e, 0xfc, 0xff, 0xff, 0x42, 0x00, 0x00, 0x00, 0xf3, 0x07, 0x00, 0x00, 
    0x70, 0x00, 0x00, 0x00, 0xe8, 0x05, 0x00, 0x00, 0xbe, 0xf9, 0xff, 0xff, 
    0x44, 0xff, 0xff, 0xff, 0x5b, 0xfe, 0xff, 0xff, 0xe3, 0xfe, 0xff, 0xff, 
    0x35, 0x00, 0x00, 0x00, 0x6b, 0x00, 0x00, 0x00, 0x06, 0x01, 0x00, 0x00, 
    0x6d, 0x05, 0x00, 0x00, 0xd0, 0x02, 0x00, 0x00, 0xd2, 0xff, 0xff, 0xff, 
    0x13, 0xfe, 0xff, 0xff, 0x5b, 0x02, 0x00, 0x00, 0x8e, 0x02, 0x00, 0x00, 
    0xb2, 0xff, 0xff, 0xff, 0x04, 0x00, 0x00, 0x00, 0x40, 0x00, 0x00, 0x00, 
    0xdf, 0xe2, 0xd0, 0x84, 0x32, 0xd7, 0xfc, 0xa9, 0x1a, 0x58, 0x3f, 0xec, 
    0xd8, 0xca, 0x63, 0xf3, 0x84, 0xb2, 0x88, 0xca, 0xce, 0x35, 0xef, 0x97, 
    0x0a, 0x06, 0xd6, 0xaf, 0x0b, 0x46, 0x17, 0x9c, 0x81, 0xd6, 0x3f, 0x57, 
    0x4f, 0x66, 0xb9, 0xeb, 0x5e, 0x7b, 0xea, 0xaa, 0xb9, 0x78, 0x5a, 0x4b, 
    0x58, 0x64, 0x09, 0xbd, 0x1f, 0x0c, 0x6f, 0xea, 0xe0, 0x8f, 0xe9, 0xc3, 
    0xae, 0x61, 0xd3, 0x49, 0x00, 0x00, 0x06, 0x00, 0x08, 0x00, 0x04, 0x00, 
    0x06, 0x00, 0x00, 0x00, 0x04, 0x00, 0x00, 0x00, 0x04, 0x00, 0x00, 0x00, 
    0xed, 0xff, 0xff, 0xff, 0x24, 0xf8, 0xff, 0xff, 0x28, 0xf8, 0xff, 0xff, 
    0x0f, 0x00, 0x00, 0x00, 0x4d, 0x4c, 0x49, 0x52, 0x20, 0x43, 0x6f, 0x6e, 
    0x76, 0x65, 0x72, 0x74, 0x65, 0x64, 0x2e, 0x00, 0x01, 0x00, 0x00, 0x00, 
    0x14, 0x00, 0x00, 0x00, 0x00, 0x00, 0x0e, 0x00, 0x18, 0x00, 0x14, 0x00, 
    0x10, 0x00, 0x0c, 0x00, 0x08, 0x00, 0x04, 0x00, 0x0e, 0x00, 0x00, 0x00, 
    0x14, 0x00, 0x00, 0x00, 0x1c, 0x00, 0x00, 0x00, 0x64, 0x01, 0x00, 0x00, 
    0x68, 0x01, 0x00, 0x00, 0x6c, 0x01, 0x00, 0x00, 0x04, 0x00, 0x00, 0x00, 
    0x6d, 0x61, 0x69, 0x6e, 0x00, 0x00, 0x00, 0x00, 0x06, 0x00, 0x00, 0x00, 
    0x2c, 0x01, 0x00, 0x00, 0xdc, 0x00, 0x00, 0x00, 0x90, 0x00, 0x00, 0x00, 
    0x58, 0x00, 0x00, 0x00, 0x34, 0x00, 0x00, 0x00, 0x04, 0x00, 0x00, 0x00, 
    0xde, 0xff, 0xff, 0xff, 0x0c, 0x00, 0x00, 0x00, 0x10, 0x00, 0x00, 0x00, 
    0x03, 0x00, 0x00, 0x00, 0x01, 0x00, 0x00, 0x00, 0x0c, 0x00, 0x00, 0x00, 
    0x01, 0x00, 0x00, 0x00, 0x0b, 0x00, 0x00, 0x00, 0x00, 0x00, 0x0a, 0x00, 
    0x10, 0x00, 0x0c, 0x00, 0x08, 0x00, 0x04, 0x00, 0x0a, 0x00, 0x00, 0x00, 
    0x0c, 0x00, 0x00, 0x00, 0x10, 0x00, 0x00, 0x00, 0x02, 0x00, 0x00, 0x00, 
    0x01, 0x00, 0x00, 0x00, 0x0b, 0x00, 0x00, 0x00, 0x01, 0x00, 0x00, 0x00, 
    0x0a, 0x00, 0x00, 0x00, 0x92, 0xff, 0xff, 0xff, 0x14, 0x00, 0x00, 0x00, 
    0x00, 0x00, 0x00, 0x08, 0x10, 0x00, 0x00, 0x00, 0x14, 0x00, 0x00, 0x00, 
    0x01, 0x00, 0x00, 0x00, 0xfc, 0xf8, 0xff, 0xff, 0x01, 0x00, 0x00, 0x00, 
    0x0a, 0x00, 0x00, 0x00, 0x03, 0x00, 0x00, 0x00, 0x09, 0x00, 0x00, 0x00, 
    0x02, 0x00, 0x00, 0x00, 0x01, 0x00, 0x00, 0x00, 0xc6, 0xff, 0xff, 0xff, 
    0x14, 0x00, 0x00, 0x00, 0x00, 0x00, 0x00, 0x08, 0x14, 0x00, 0x00, 0x00, 
    0x18, 0x00, 0x00, 0x00, 0x01, 0x00, 0x00, 0x00, 0xb6, 0xff, 0xff, 0xff, 
    0x00, 0x00, 0x00, 0x01, 0x01, 0x00, 0x00, 0x00, 0x09, 0x00, 0x00, 0x00, 
    0x03, 0x00, 0x00, 0x00, 0x08, 0x00, 0x00, 0x00, 0x04, 0x00, 0x00, 0x00, 
    0x03, 0x00, 0x00, 0x00, 0x00, 0x00, 0x0e, 0x00, 0x1a, 0x00, 0x14, 0x00, 
    0x10, 0x00, 0x0c, 0x00, 0x0b, 0x00, 0x04, 0x00, 0x0e, 0x00, 0x00, 0x00, 
    0x1c, 0x00, 0x00, 0x00, 0x00, 0x00, 0x00, 0x08, 0x1c, 0x00, 0x00, 0x00, 
    0x20, 0x00, 0x00, 0x00, 0x01, 0x00, 0x00, 0x00, 0x00, 0x00, 0x06, 0x00, 
    0x08, 0x00, 0x07, 0x00, 0x06, 0x00, 0x00, 0x00, 0x00, 0x00, 0x00, 0x01, 
    0x01, 0x00, 0x00, 0x00, 0x08, 0x00, 0x00, 0x00, 0x03, 0x00, 0x00, 0x00, 
    0x07, 0x00, 0x00, 0x00, 0x06, 0x00, 0x00, 0x00, 0x05, 0x00, 0x00, 0x00, 
    0x00, 0x00, 0x0a, 0x00, 0x0c, 0x00, 0x00, 0x00, 0x08, 0x00, 0x04, 0x00, 
    0x0a, 0x00, 0x00, 0x00, 0x08, 0x00, 0x00, 0x00, 0x0c, 0x00, 0x00, 0x00, 
    0x01, 0x00, 0x00, 0x00, 0x07, 0x00, 0x00, 0x00, 0x01, 0x00, 0x00, 0x00, 
    0x00, 0x00, 0x00, 0x00, 0x01, 0x00, 0x00, 0x00, 0x0c, 0x00, 0x00, 0x00, 
    0x01, 0x00, 0x00, 0x00, 0x00, 0x00, 0x00, 0x00, 0x0d, 0x00, 0x00, 0x00, 
    0xfc, 0x05, 0x00, 0x00, 0x74, 0x05, 0x00, 0x00, 0xf4, 0x04, 0x00, 0x00, 
    0x90, 0x04, 0x00, 0x00, 0x2c, 0x04, 0x00, 0x00, 0xc8, 0x03, 0x00, 0x00, 
    0x64, 0x03, 0x00, 0x00, 0xf0, 0x02, 0x00, 0x00, 0x1c, 0x02, 0x00, 0x00, 
    0x60, 0x01, 0x00, 0x00, 0xbc, 0x00, 0x00, 0x00, 0x50, 0x00, 0x00, 0x00, 
    0x04, 0x00, 0x00, 0x00, 0x4e, 0xfa, 0xff, 0xff, 0x00, 0x00, 0x00, 0x01, 
    0x14, 0x00, 0x00, 0x00, 0x1c, 0x00, 0x00, 0x00, 0x1c, 0x00, 0x00, 0x00, 
    0x0d, 0x00, 0x00, 0x00, 0x24, 0x00, 0x00, 0x00, 0x02, 0x00, 0x00, 0x00, 
    0xff, 0xff, 0xff, 0xff, 0x01, 0x00, 0x00, 0x00, 0x38, 0xfa, 0xff, 0xff, 
    0x08, 0x00, 0x00, 0x00, 0x49, 0x64, 0x65, 0x6e, 0x74, 0x69, 0x74, 0x79, 
    0x00, 0x00, 0x00, 0x00, 0x02, 0x00, 0x00, 0x00, 0x01, 0x00, 0x00, 0x00, 
    0x01, 0x00, 0x00, 0x00, 0x86, 0xfd, 0xff, 0xff, 0x00, 0x00, 0x00, 0x01, 
    0x18, 0x00, 0x00, 0x00, 0x20, 0x00, 0x00, 0x00, 0x3c, 0x00, 0x00, 0x00, 
    0x0c, 0x00, 0x00, 0x00, 0x00, 0x00, 0x00, 0x09, 0x40, 0x00, 0x00, 0x00, 
    0x02, 0x00, 0x00, 0x00, 0xff, 0xff, 0xff, 0xff, 0x01, 0x00, 0x00, 0x00, 
    0x14, 0xfb, 0xff, 0xff, 0x08, 0x00, 0x00, 0x00, 0x10, 0x00, 0x00, 0x00, 
    0x01, 0x00, 0x00, 0x00, 0x80, 0xff, 0xff, 0xff, 0xff, 0xff, 0xff, 0xff, 
    0x01, 0x00, 0x00, 0x00, 0x00, 0x00, 0x80, 0x3b, 0x09, 0x00, 0x00, 0x00, 
    0x49, 0x64, 0x65, 0x6e, 0x74, 0x69, 0x74, 0x79, 0x31, 0x00, 0x00, 0x00, 
    0x02, 0x00, 0x00, 0x00, 0x01, 0x00, 0x00, 0x00, 0x01, 0x00, 0x00, 0x00, 
    0xee, 0xfd, 0xff, 0xff, 0x00, 0x00, 0x00, 0x01, 0x18, 0x00, 0x00, 0x00, 
    0x20, 0x00, 0x00, 0x00, 0x3c, 0x00, 0x00, 0x00, 0x0b, 0x00, 0x00, 0x00, 
    0x00, 0x00, 0x00, 0x09, 0x78, 0x00, 0x00, 0x00, 0x02, 0x00, 0x00, 0x00, 
    0xff, 0xff, 0xff, 0xff, 0x01, 0x00, 0x00, 0x00, 0x7c, 0xfb, 0xff, 0xff, 
    0x08, 0x00, 0x00, 0x00, 0x10, 0x00, 0x00, 0x00, 0x01, 0x00, 0x00, 0x00, 
    0xfa, 0xff, 0xff, 0xff, 0xff, 0xff, 0xff, 0xff, 0x01, 0x00, 0x00, 0x00, 
    0xaa, 0x93, 0x93, 0x3b, 0x42, 0x00, 0x00, 0x00, 0x73, 0x65, 0x71, 0x75, 
    0x65, 0x6e, 0x74, 0x69, 0x61, 0x6c, 0x5f, 0x31, 0x2f, 0x6f, 0x75, 0x74, 
    0x70, 0x75, 0x74, 0x5f, 0x6c, 0x61, 0x79, 0x65, 0x72, 0x5f, 0x31, 0x2f, 
    0x4d, 0x61, 0x74, 0x4d, 0x75, 0x6c, 0x3b, 0x73, 0x65, 0x71, 0x75, 0x65, 
    0x6e, 0x74, 0x69, 0x61, 0x6c, 0x5f, 0x31, 0x2f, 0x6f, 0x75, 0x74, 0x70, 
    0x75, 0x74, 0x5f, 0x6c, 0x61, 0x79, 0x65, 0x72, 0x5f, 0x31, 0x2f, 0x41, 
    0x64, 0x64, 0x00, 0x00, 0x02, 0x00, 0x00, 0x00, 0x01, 0x00, 0x00, 0x00, 
    0x01, 0x00, 0x00, 0x00, 0x8e, 0xfe, 0xff, 0xff, 0x00, 0x00, 0x00, 0x01, 
    0x18, 0x00, 0x00, 0x00, 0x20, 0x00, 0x00, 0x00, 0x40, 0x00, 0x00, 0x00, 
    0x0a, 0x00, 0x00, 0x00, 0x00, 0x00, 0x00, 0x09, 0x90, 0x00, 0x00, 0x00, 
    0x02, 0x00, 0x00, 0x00, 0xff, 0xff, 0xff, 0xff, 0x40, 0x00, 0x00, 0x00, 
    0x1c, 0xfc, 0xff, 0xff, 0x08, 0x00, 0x00, 0x00, 0x14, 0x00, 0x00, 0x00, 
    0x01, 0x00, 0x00, 0x00, 0x80, 0xff, 0xff, 0xff, 0xff, 0xff, 0xff, 0xff, 
    0x00, 0x00, 0x00, 0x00, 0x01, 0x00, 0x00, 0x00, 0xd2, 0xe9, 0xb5, 0x3b, 
    0x54, 0x00, 0x00, 0x00, 0x73, 0x65, 0x71, 0x75, 0x65, 0x6e, 0x74, 0x69, 
    0x61, 0x6c, 0x5f, 0x31, 0x2f, 0x64, 0x65, 0x6e, 0x73, 0x65, 0x5f, 0x32, 
    0x5f, 0x31, 0x2f, 0x4d, 0x61, 0x74, 0x4d, 0x75, 0x6c, 0x3b, 0x73, 0x65, 
    0x71, 0x75, 0x65, 0x6e, 0x74, 0x69, 0x61, 0x6c, 0x5f, 0x31, 0x2f, 0x64, 
    0x65, 0x6e, 0x73, 0x65, 0x5f, 0x32, 0x5f, 0x31, 0x2f, 0x52, 0x65, 0x6c, 
    0x75, 0x3b, 0x73, 0x65, 0x71, 0x75, 0x65, 0x6e, 0x74, 0x69, 0x61, 0x6c, 
    0x5f, 0x31, 0x2f, 0x64, 0x65, 0x6e, 0x73, 0x65, 0x5f, 0x32, 0x5f, 0x31, 
    0x2f, 0x41, 0x64, 0x64, 0x00, 0x00, 0x00, 0x00, 0x02, 0x00, 0x00, 0x00, 
    0x01, 0x00, 0x00, 0x00, 0x40, 0x00, 0x00, 0x00, 0x46, 0xff, 0xff, 0xff, 
    0x00, 0x00, 0x00, 0x01, 0x18, 0x00, 0x00, 0x00, 0x20, 0x00, 0x00, 0x00, 
    0x40, 0x00, 0x00, 0x00, 0x09, 0x00, 0x00, 0x00, 0x00, 0x00, 0x00, 0x09, 
    0x90, 0x00, 0x00, 0x00, 0x02, 0x00, 0x00, 0x00, 0xff, 0xff, 0xff, 0xff, 
    0x40, 0x00, 0x00, 0x00, 0xd4, 0xfc, 0xff, 0xff, 0x08, 0x00, 0x00, 0x00, 
    0x14, 0x00, 0x00, 0x00, 0x01, 0x00, 0x00, 0x00, 0x80, 0xff, 0xff, 0xff, 
    0xff, 0xff, 0xff, 0xff, 0x00, 0x00, 0x00, 0x00, 0x01, 0x00, 0x00, 0x00, 
    0x0d, 0x06, 0xa5, 0x3b, 0x54, 0x00, 0x00, 0x00, 0x73, 0x65, 0x71, 0x75, 
    0x65, 0x6e, 0x74, 0x69, 0x61, 0x6c, 0x5f, 0x31, 0x2f, 0x64, 0x65, 0x6e, 
    0x73, 0x65, 0x5f, 0x31, 0x5f, 0x31, 0x2f, 0x4d, 0x61, 0x74, 0x4d, 0x75, 
    0x6c, 0x3b, 0x73, 0x65, 0x71, 0x75, 0x65, 0x6e, 0x74, 0x69, 0x61, 0x6c, 
    0x5f, 0x31, 0x2f, 0x64, 0x65, 0x6e, 0x73, 0x65, 0x5f, 0x31, 0x5f, 0x31, 
    0x2f, 0x52, 0x65, 0x6c, 0x75, 0x3b, 0x73, 0x65, 0x71, 0x75, 0x65, 0x6e, 
    0x74, 0x69, 0x61, 0x6c, 0x5f, 0x31, 0x2f, 0x64, 0x65, 0x6e, 0x73, 0x65, 
    0x5f, 0x31, 0x5f, 0x31, 0x2f, 0x41, 0x64, 0x64, 0x00, 0x00, 0x00, 0x00, 
    0x02, 0x00, 0x00, 0x00, 0x01, 0x00, 0x00, 0x00, 0x40, 0x00, 0x00, 0x00, 
    0x00, 0x00, 0x16, 0x00, 0x20, 0x00, 0x1c, 0x00, 0x1b, 0x00, 0x14, 0x00, 
    0x10, 0x00, 0x0c, 0x00, 0x00, 0x00, 0x00, 0x00, 0x08, 0x00, 0x07, 0x00, 
    0x16, 0x00, 0x00, 0x00, 0x00, 0x00, 0x00, 0x01, 0x18, 0x00, 0x00, 0x00, 
    0x20, 0x00, 0x00, 0x00, 0x40, 0x00, 0x00, 0x00, 0x08, 0x00, 0x00, 0x00, 
    0x00, 0x00, 0x00, 0x09, 0x48, 0x00, 0x00, 0x00, 0x02, 0x00, 0x00, 0x00, 
    0xff, 0xff, 0xff, 0xff, 0x04, 0x00, 0x00, 0x00, 0xa4, 0xfd, 0xff, 0xff, 
    0x08, 0x00, 0x00, 0x00, 0x14, 0x00, 0x00, 0x00, 0x01, 0x00, 0x00, 0x00, 
    0x02, 0x00, 0x00, 0x00, 0x00, 0x00, 0x00, 0x00, 0x00, 0x00, 0x00, 0x00, 
    0x01, 0x00, 0x00, 0x00, 0x20, 0xbb, 0x7a, 0x3c, 0x0c, 0x00, 0x00, 0x00, 
    0x74, 0x66, 0x6c, 0x2e, 0x71, 0x75, 0x61, 0x6e, 0x74, 0x69, 0x7a, 0x65, 
    0x00, 0x00, 0x00, 0x00, 0x02, 0x00, 0x00, 0x00, 0x01, 0x00, 0x00, 0x00, 
    0x04, 0x00, 0x00, 0x00, 0x1a, 0xfe, 0xff, 0xff, 0x00, 0x00, 0x00, 0x01, 
    0x14, 0x00, 0x00, 0x00, 0x30, 0x00, 0x00, 0x00, 0x07, 0x00, 0x00, 0x00, 
    0x00, 0x00, 0x00, 0x09, 0x3c, 0x00, 0x00, 0x00, 0x04, 0xfe, 0xff, 0xff, 
    0x08, 0x00, 0x00, 0x00, 0x10, 0x00, 0x00, 0x00, 0x01, 0x00, 0x00, 0x00, 
    0x00, 0x00, 0x00, 0x00, 0x00, 0x00, 0x00, 0x00, 0x01, 0x00, 0x00, 0x00, 
    0x90, 0xcd, 0x20, 0x3b, 0x12, 0x00, 0x00, 0x00, 0x74, 0x66, 0x6c, 0x2e, 
    0x70, 0x73, 0x65, 0x75, 0x64, 0x6f, 0x5f, 0x71, 0x63, 0x6f, 0x6e, 0x73, 
    0x74, 0x35, 0x00, 0x00, 0x02, 0x00, 0x00, 0x00, 0x40, 0x00, 0x00, 0x00, 
    0x04, 0x00, 0x00, 0x00, 0x7a, 0xfe, 0xff, 0xff, 0x00, 0x00, 0x00, 0x01, 
    0x14, 0x00, 0x00, 0x00, 0x34, 0x00, 0x00, 0x00, 0x06, 0x00, 0x00, 0x00, 
    0x00, 0x00, 0x00, 0x02, 0x40, 0x00, 0x00, 0x00, 0x64, 0xfe, 0xff, 0xff, 
    0x08, 0x00, 0x00, 0x00, 0x14, 0x00, 0x00, 0x00, 0x01, 0x00, 0x00, 0x00, 
    0x00, 0x00, 0x00, 0x00, 0x00, 0x00, 0x00, 0x00, 0x00, 0x00, 0x00, 0x00, 
    0x01, 0x00, 0x00, 0x00, 0x49, 0x7e, 0x1d, 0x38, 0x12, 0x00, 0x00, 0x00, 
    0x74, 0x66, 0x6c, 0x2e, 0x70, 0x73, 0x65, 0x75, 0x64, 0x6f, 0x5f, 0x71, 
    0x63, 0x6f, 0x6e, 0x73, 0x74, 0x34, 0x00, 0x00, 0x01, 0x00, 0x00, 0x00, 
    0x40, 0x00, 0x00, 0x00, 0xda, 0xfe, 0xff, 0xff, 0x00, 0x00, 0x00, 0x01, 
    0x14, 0x00, 0x00, 0x00, 0x30, 0x00, 0x00, 0x00, 0x05, 0x00, 0x00, 0x00, 
    0x00, 0x00, 0x00, 0x09, 0x3c, 0x00, 0x00, 0x00, 0xc4, 0xfe, 0xff, 0xff, 
    0x08, 0x00, 0x00, 0x00, 0x10, 0x00, 0x00, 0x00, 0x01, 0x00, 0x00, 0x00, 
    0x00, 0x00, 0x00, 0x00, 0x00, 0x00, 0x00, 0x00, 0x01, 0x00, 0x00, 0x00, 
    0xf0, 0x1e, 0xfd, 0x3a, 0x12, 0x00, 0x00, 0x00, 0x74, 0x66, 0x6c, 0x2e, 
    0x70, 0x73, 0x65, 0x75, 0x64, 0x6f, 0x5f, 0x71, 0x63, 0x6f, 0x6e, 0x73, 
    0x74, 0x33, 0x00, 0x00, 0x02, 0x00, 0x00, 0x00, 0x40, 0x00, 0x00, 0x00, 
    0x40, 0x00, 0x00, 0x00, 0x3a, 0xff, 0xff, 0xff, 0x00, 0x00, 0x00, 0x01, 
    0x14, 0x00, 0x00, 0x00, 0x34, 0x00, 0x00, 0x00, 0x04, 0x00, 0x00, 0x00, 
    0x00, 0x00, 0x00, 0x02, 0x40, 0x00, 0x00, 0x00, 0x24, 0xff, 0xff, 0xff, 
    0x08, 0x00, 0x00, 0x00, 0x14, 0x00, 0x00, 0x00, 0x01, 0x00, 0x00, 0x00, 
    0x00, 0x00, 0x00, 0x00, 0x00, 0x00, 0x00, 0x00, 0x00, 0x00, 0x00, 0x00, 
    0x01, 0x00, 0x00, 0x00, 0xec, 0x2a, 0x23, 0x37, 0x12, 0x00, 0x00, 0x00, 
    0x74, 0x66, 0x6c, 0x2e, 0x70, 0x73, 0x65, 0x75, 0x64, 0x6f, 0x5f, 0x71, 
    0x63, 0x6f, 0x6e, 0x73, 0x74, 0x32, 0x00, 0x00, 0x01, 0x00, 0x00, 0x00, 
    0x40, 0x00, 0x00, 0x00, 0x9a, 0xff, 0xff, 0xff, 0x00, 0x00, 0x00, 0x01, 
    0x14, 0x00, 0x00, 0x00, 0x34, 0x00, 0x00, 0x00, 0x03, 0x00, 0x00, 0x00, 
    0x00, 0x00, 0x00, 0x09, 0x40, 0x00, 0x00, 0x00, 0x84, 0xff, 0xff, 0xff, 
    0x08, 0x00, 0x00, 0x00, 0x14, 0x00, 0x00, 0x00, 0x01, 0x00, 0x00, 0x00, 
    0x00, 0x00, 0x00, 0x00, 0x00, 0x00, 0x00, 0x00, 0x00, 0x00, 0x00, 0x00, 
    0x01, 0x00, 0x00, 0x00, 0x47, 0x21, 0x20, 0x3b, 0x12, 0x00, 0x00, 0x00, 
    0x74, 0x66, 0x6c, 0x2e, 0x70, 0x73, 0x65, 0x75, 0x64, 0x6f, 0x5f, 0x71, 
    0x63, 0x6f, 0x6e, 0x73, 0x74, 0x31, 0x00, 0x00, 0x02, 0x00, 0x00, 0x00, 
    0x01, 0x00, 0x00, 0x00, 0x40, 0x00, 0x00, 0x00, 0x00, 0x00, 0x16, 0x00, 
    0x1c, 0x00, 0x18, 0x00, 0x17, 0x00, 0x10, 0x00, 0x0c, 0x00, 0x08, 0x00, 
    0x00, 0x00, 0x00, 0x00, 0x00, 0x00, 0x07, 0x00, 0x16, 0x00, 0x00, 0x00, 
    0x00, 0x00, 0x00, 0x01, 0x20, 0x00, 0x00, 0x00, 0x40, 0x00, 0x00, 0x00, 
    0x02, 0x00, 0x00, 0x00, 0x00, 0x00, 0x00, 0x02, 0x4c, 0x00, 0x00, 0x00, 
    0x0c, 0x00, 0x0c, 0x00, 0x00, 0x00, 0x00, 0x00, 0x08, 0x00, 0x04, 0x00, 
    0x0c, 0x00, 0x00, 0x00, 0x08, 0x00, 0x00, 0x00, 0x14, 0x00, 0x00, 0x00, 
    0x01, 0x00, 0x00, 0x00, 0x00, 0x00, 0x00, 0x00, 0x00, 0x00, 0x00, 0x00, 
    0x00, 0x00, 0x00, 0x00, 0x01, 0x00, 0x00, 0x00, 0x92, 0x93, 0x63, 0x37, 
    0x11, 0x00, 0x00, 0x00, 0x74, 0x66, 0x6c, 0x2e, 0x70, 0x73, 0x65, 0x75, 
    0x64, 0x6f, 0x5f, 0x71, 0x63, 0x6f, 0x6e, 0x73, 0x74, 0x00, 0x00, 0x00, 
    0x01, 0x00, 0x00, 0x00, 0x01, 0x00, 0x00, 0x00, 0x00, 0x00, 0x16, 0x00, 
    0x1c, 0x00, 0x18, 0x00, 0x00, 0x00, 0x14, 0x00, 0x10, 0x00, 0x0c, 0x00, 
    0x00, 0x00, 0x00, 0x00, 0x08, 0x00, 0x07, 0x00, 0x16, 0x00, 0x00, 0x00, 
    0x00, 0x00, 0x00, 0x01, 0x14, 0x00, 0x00, 0x00, 0x20, 0x00, 0x00, 0x00, 
    0x20, 0x00, 0x00, 0x00, 0x01, 0x00, 0x00, 0x00, 0x20, 0x00, 0x00, 0x00, 
    0x02, 0x00, 0x00, 0x00, 0xff, 0xff, 0xff, 0xff, 0x04, 0x00, 0x00, 0x00, 
    0x04, 0x00, 0x04, 0x00, 0x04, 0x00, 0x00, 0x00, 0x01, 0x00, 0x00, 0x00, 
    0x78, 0x00, 0x00, 0x00, 0x02, 0x00, 0x00, 0x00, 0x01, 0x00, 0x00, 0x00, 
    0x04, 0x00, 0x00, 0x00, 0x04, 0x00, 0x00, 0x00, 0x58, 0x00, 0x00, 0x00, 
    0x38, 0x00, 0x00, 0x00, 0x18, 0x00, 0x00, 0x00, 0x04, 0x00, 0x00, 0x00, 
    0xe0, 0xff, 0xff, 0xff, 0x06, 0x00, 0x00, 0x00, 0x02, 0x00, 0x00, 0x00, 
    0x00, 0x00, 0x00, 0x06, 0xf0, 0xff, 0xff, 0xff, 0x0e, 0x00, 0x00, 0x00, 
    0x02, 0x00, 0x00, 0x00, 0x00, 0x00, 0x00, 0x0e, 0x0c, 0x00, 0x10, 0x00, 
    0x0f, 0x00, 0x00, 0x00, 0x08, 0x00, 0x04, 0x00, 0x0c, 0x00, 0x00, 0x00, 
    0x09, 0x00, 0x00, 0x00, 0x04, 0x00, 0x00, 0x00, 0x00, 0x00, 0x00, 0x09, 
    0x0c, 0x00, 0x0c, 0x00, 0x0b, 0x00, 0x00, 0x00, 0x00, 0x00, 0x04, 0x00, 
    0x0c, 0x00, 0x00, 0x00, 0x72, 0x00, 0x00, 0x00, 0x00, 0x00, 0x00, 0x72, 
};

const unsigned int model_tflite_len = 7608;

#endif  // MODEL_TFLITE_H
